#include "network_data.h"

ai_handle ai_network_data_weights_get(void)
{

  AI_ALIGNED(4)
  static const ai_u8 s_network_weights[ 375448 ] = {
    0xcf, 0xae, 0x9d, 0x3d, 0x1b, 0x0c, 0xd1, 0xbd, 0x63, 0x99,
    0x36, 0xbd, 0xdb, 0x67, 0x46, 0xbe, 0x3b, 0xe7, 0x0d, 0x3e,
    0xb9, 0x8d, 0xa5, 0x3d, 0x9d, 0x76, 0x12, 0xbe, 0x37, 0x45,
    0xc3, 0xbd, 0xe3, 0xfc, 0x28, 0xbe, 0x1a, 0x58, 0x76, 0xbd,
    0x68, 0x32, 0xb2, 0x3d, 0x99, 0xcd, 0x80, 0x3d, 0xe4, 0xb8,
    0xe3, 0x3d, 0x80, 0xa5, 0x75, 0xbc, 0xd8, 0x76, 0x09, 0xbe,
    0xe6, 0xe6, 0x51, 0xbd, 0xf0, 0x2c, 0xdf, 0xbd, 0x3c, 0x4d,
    0xde, 0x3d, 0xd2, 0xd0, 0xb3, 0x3d, 0x06, 0xe0, 0xe5, 0xbd,
    0xf7, 0x07, 0xbf, 0x3a, 0xdb, 0xde, 0xf5, 0xba, 0x8f, 0xd2,
    0xa1, 0xba, 0x66, 0xef, 0x9e, 0x3a, 0x31, 0x35, 0xa5, 0xba,
    0x3b, 0xd9, 0xfd, 0x3a, 0x7e, 0x81, 0x2e, 0xba, 0xa8, 0x13,
    0x8c, 0xbb, 0x9c, 0x4d, 0x20, 0x3b, 0xa3, 0xfc, 0xb6, 0xbd,
    0x86, 0xfe, 0xe0, 0x3a, 0x84, 0x9f, 0x03, 0xbe, 0xf8, 0x4d,
    0x63, 0x3d, 0x75, 0x05, 0xeb, 0xbc, 0xcf, 0xbc, 0x96, 0xbd,
    0x38, 0xc3, 0x32, 0xbe, 0x64, 0x20, 0xa9, 0x3d, 0x8e, 0x88,
    0x87, 0xbd, 0xb8, 0xc5, 0xb3, 0xbd, 0xc8, 0x1f, 0x18, 0x3d,
    0x9a, 0x7d, 0x04, 0xbe, 0xba, 0x16, 0x5f, 0x3b, 0x30, 0xec,
    0xec, 0x3d, 0x12, 0xf1, 0x9f, 0xbd, 0x33, 0xa0, 0xf5, 0x3c,
    0x3a, 0xe8, 0x00, 0x3e, 0xcd, 0xc6, 0x8e, 0x3b, 0x21, 0xb6,
    0x20, 0xbe, 0xcc, 0xc4, 0x7e, 0x3c, 0xf4, 0x1b, 0x97, 0x3c,
    0x07, 0x9d, 0xa8, 0x3c, 0x9d, 0x48, 0x2b, 0x3d, 0x99, 0x7f,
    0xa8, 0xbd, 0x9d, 0x11, 0xc7, 0xbd, 0x8e, 0x0d, 0x11, 0x3d,
    0xb4, 0xa8, 0xd6, 0x3c, 0xf5, 0x57, 0xdc, 0xbc, 0x1c, 0xe5,
    0x95, 0x3d, 0x67, 0x61, 0x39, 0xbe, 0xfc, 0x49, 0x8b, 0xbd,
    0x67, 0x3f, 0x58, 0x3b, 0x58, 0x7a, 0xdc, 0x39, 0x79, 0xb2,
    0x5f, 0xbb, 0x14, 0x2b, 0x92, 0xba, 0xc5, 0xf6, 0x0f, 0x3a,
    0x4b, 0x2c, 0xb6, 0xba, 0x4b, 0xf1, 0x40, 0xbb, 0x9e, 0x40,
    0x58, 0x38, 0xcb, 0x4a, 0xe1, 0xbd, 0x46, 0x0e, 0xf0, 0xbd,
    0xb7, 0x7d, 0x84, 0x3d, 0xec, 0xf5, 0xe1, 0x3d, 0x44, 0xd9,
    0x39, 0x3b, 0xd9, 0xa0, 0x58, 0xb9, 0x33, 0x63, 0x64, 0x39,
    0xcc, 0x86, 0x28, 0x3a, 0xcd, 0x26, 0x30, 0x3d, 0x76, 0x03,
    0x21, 0xbe, 0x09, 0x09, 0x91, 0xbd, 0xfc, 0x81, 0x87, 0x3d,
    0xe5, 0x01, 0x0e, 0x3c, 0x4d, 0x54, 0x90, 0xbd, 0x74, 0xeb,
    0xb5, 0x3d, 0xc8, 0x16, 0xec, 0xbc, 0x50, 0xe0, 0x65, 0x39,
    0x35, 0x4d, 0x3a, 0xba, 0xe7, 0x96, 0x4c, 0xba, 0xfd, 0x1f,
    0x98, 0x3a, 0x2e, 0x1f, 0xac, 0x3d, 0x74, 0xcd, 0xab, 0x3d,
    0xbc, 0x82, 0xbc, 0xbd, 0x1f, 0x9c, 0xb6, 0xbd, 0x01, 0xab,
    0x69, 0xbd, 0x5e, 0xd5, 0x57, 0xbd, 0xe3, 0x75, 0xda, 0xbd,
    0x01, 0xb5, 0x77, 0xbe, 0x65, 0xf1, 0xbe, 0xba, 0xd2, 0xa8,
    0x8f, 0xbb, 0x51, 0x23, 0x05, 0xbb, 0x44, 0x7a, 0x2f, 0xba,
    0xf4, 0xb4, 0x4a, 0xbc, 0xca, 0x80, 0xe1, 0x3c, 0xf9, 0x19,
    0x87, 0x3c, 0x96, 0xad, 0x34, 0x3d, 0x0f, 0x75, 0x39, 0xbc,
    0x8c, 0x9d, 0x07, 0x3e, 0xc8, 0xda, 0xe2, 0xbb, 0x1d, 0x75,
    0x16, 0xbe, 0xdb, 0x83, 0xb0, 0xba, 0xdf, 0x7a, 0xa2, 0xbb,
    0x13, 0xbb, 0x82, 0x3a, 0x88, 0x94, 0xa2, 0x39, 0x88, 0x09,
    0x1d, 0x3d, 0x98, 0x26, 0xda, 0xbc, 0x11, 0x34, 0xaf, 0x3b,
    0xdd, 0x13, 0x0e, 0x3d, 0x1c, 0x49, 0x22, 0xbe, 0x05, 0x32,
    0x0e, 0xbe, 0x0a, 0x53, 0xad, 0x3d, 0x4f, 0x44, 0x63, 0x3d,
    0xc8, 0x9a, 0xea, 0xbd, 0xc0, 0x64, 0xc6, 0xbd, 0x76, 0x85,
    0xd6, 0xbd, 0xbe, 0x4c, 0x51, 0xbe, 0xf3, 0x26, 0xa3, 0xbd,
    0x85, 0x4a, 0xbd, 0x3d, 0xa2, 0x9d, 0xbe, 0x3d, 0x01, 0x1f,
    0xd4, 0xbd, 0xbf, 0xd0, 0x14, 0x3c, 0xe7, 0x9c, 0x24, 0x3d,
    0xd6, 0x79, 0x43, 0xbd, 0xd5, 0x49, 0x35, 0xbd, 0xc4, 0x63,
    0x5d, 0x3d, 0x9f, 0xa4, 0x87, 0xbd, 0xa6, 0xa9, 0x83, 0xbd,
    0xef, 0x48, 0xe7, 0xbd, 0x12, 0xd1, 0xf3, 0xbd, 0x8c, 0x0f,
    0xbf, 0xbc, 0xcd, 0xb9, 0x9d, 0x3d, 0x9f, 0x14, 0x12, 0x3d,
    0xbf, 0x5a, 0x1b, 0xbe, 0x71, 0x35, 0x35, 0xbe, 0x3f, 0x93,
    0xc3, 0x3d, 0xac, 0xa6, 0x7a, 0x3d, 0xf2, 0x3d, 0xee, 0x3d,
    0xe8, 0x87, 0x95, 0xbd, 0x33, 0xc7, 0xf8, 0xbd, 0xf8, 0xb2,
    0x9a, 0x3d, 0xee, 0x1e, 0xc9, 0xbb, 0x48, 0xe0, 0x3b, 0xbb,
    0x19, 0x30, 0x99, 0x3b, 0xc8, 0xd7, 0x54, 0xbb, 0x39, 0x84,
    0x62, 0xbc, 0x65, 0x7e, 0xec, 0xbd, 0x98, 0xbd, 0x93, 0xbc,
    0xb8, 0xfe, 0xb0, 0x3d, 0xdf, 0x4e, 0xa4, 0xbd, 0xa1, 0x70,
    0xa5, 0x3d, 0x33, 0x11, 0xbd, 0x3d, 0x9d, 0x6a, 0x91, 0xbd,
    0x14, 0x81, 0x0a, 0xbe, 0xa8, 0xf8, 0xef, 0x3c, 0x3d, 0xa5,
    0x0d, 0x3e, 0x0d, 0x9a, 0xfa, 0xbd, 0xfb, 0x0e, 0x58, 0xbd,
    0xeb, 0x1d, 0x37, 0x3b, 0x6d, 0x82, 0x08, 0x3d, 0x3d, 0x0a,
    0x6b, 0xbd, 0x74, 0x0e, 0x00, 0x3e, 0xde, 0xc8, 0x7b, 0xbd,
    0xec, 0x9b, 0x14, 0xbe, 0x7c, 0x83, 0xb2, 0xbc, 0xe6, 0xf8,
    0xba, 0xbd, 0x29, 0x6b, 0x35, 0xbc, 0xfb, 0xe4, 0xa7, 0x3d,
    0x16, 0x9e, 0x89, 0xbd, 0x01, 0x81, 0x11, 0xbe, 0x9c, 0x05,
    0xae, 0x3c, 0x17, 0xcc, 0x0b, 0x3e, 0x73, 0xaa, 0xb8, 0xbd,
    0x2e, 0xb3, 0x39, 0xbd, 0xca, 0xb6, 0xff, 0xbd, 0x2d, 0xe6,
    0xa9, 0xbc, 0xc5, 0x4d, 0xc5, 0x3d, 0x8a, 0xbe, 0x37, 0x3c,
    0xf1, 0x65, 0x8e, 0xbd, 0x6a, 0xf5, 0x8e, 0x3d, 0xec, 0x54,
    0x7c, 0xbd, 0x78, 0xa0, 0x95, 0x3d, 0xb2, 0x84, 0xbd, 0xbd,
    0x2e, 0xcd, 0x4a, 0xbe, 0x19, 0xee, 0x67, 0x3c, 0x46, 0x39,
    0x3e, 0xbc, 0xa3, 0x61, 0x9d, 0xbb, 0xac, 0x2e, 0xfc, 0x3b,
    0x28, 0xff, 0xab, 0x3a, 0xaa, 0x38, 0xb0, 0xbc, 0x9c, 0xaa,
    0xfb, 0x3d, 0xd7, 0x04, 0x03, 0x3d, 0x44, 0x62, 0x0e, 0xbe,
    0x61, 0xac, 0xa8, 0xbb, 0x94, 0x53, 0x92, 0xbb, 0x04, 0xaf,
    0xd6, 0x3b, 0x5b, 0x4d, 0x56, 0x39, 0xe6, 0x09, 0xc1, 0xbd,
    0xca, 0xf4, 0xcc, 0x3d, 0x43, 0xcf, 0x9f, 0x3d, 0xaa, 0x91,
    0xf3, 0xbd, 0x02, 0x3e, 0x30, 0xbe, 0x99, 0xc8, 0x92, 0xbc,
    0x0f, 0x42, 0x12, 0x3e, 0x15, 0x37, 0xe2, 0xbd, 0x9c, 0x48,
    0x14, 0x3b, 0xab, 0xec, 0x96, 0xbb, 0x9a, 0xcf, 0xb0, 0xbb,
    0x6e, 0xe1, 0x73, 0x3a, 0x0b, 0x30, 0x01, 0xbe, 0x2b, 0xc0,
    0xde, 0xbd, 0xc5, 0xc9, 0xa1, 0xbd, 0x2e, 0xa2, 0x18, 0xbe,
    0x1a, 0xd4, 0x06, 0xbd, 0xa3, 0x9f, 0x94, 0xbd, 0xe9, 0x59,
    0xd4, 0xbd, 0x26, 0xf7, 0x82, 0xbd, 0x08, 0x15, 0xd3, 0xb9,
    0x9b, 0x2c, 0xbd, 0x3a, 0xff, 0xaf, 0xea, 0xba, 0x07, 0x63,
    0x5b, 0xbc, 0xbb, 0x01, 0x2e, 0x3c, 0xd1, 0x81, 0xb1, 0xbd,
    0x76, 0x7e, 0xc6, 0x3d, 0xa6, 0x8e, 0x6b, 0xbd, 0x62, 0x56,
    0x13, 0x3d, 0x49, 0xcd, 0xd1, 0xbd, 0xeb, 0x60, 0xbb, 0x3d,
    0x88, 0x47, 0xe0, 0xbd, 0x8d, 0x4f, 0x81, 0x3c, 0x4d, 0x8e,
    0xce, 0x3c, 0x2d, 0xd1, 0xcd, 0xbd, 0x6b, 0x03, 0x3d, 0xbe,
    0xbf, 0x9d, 0xac, 0xba, 0x14, 0x78, 0x8a, 0x3b, 0x2d, 0xa9,
    0xdd, 0x3a, 0xe3, 0x85, 0xbb, 0xbb, 0x44, 0x0a, 0x70, 0x3d,
    0xc9, 0x84, 0xf0, 0x3d, 0x26, 0xd7, 0x11, 0xbd, 0x55, 0xe0,
    0xfb, 0xbd, 0xd9, 0x79, 0x51, 0x39, 0x7b, 0x4a, 0x3a, 0x3a,
    0x30, 0x55, 0x70, 0xba, 0xe5, 0x10, 0xd5, 0xba, 0xec, 0x3a,
    0x41, 0xbe, 0x1f, 0x74, 0x1c, 0xbd, 0xef, 0x71, 0x16, 0x3e,
    0xed, 0xdc, 0x12, 0xbe, 0x4d, 0x41, 0x1c, 0xbd, 0xdd, 0xd7,
    0x40, 0xbd, 0x8d, 0xa0, 0x8a, 0xbd, 0xc0, 0x23, 0xae, 0x3c,
    0xdc, 0x4a, 0x3f, 0x3d, 0xf4, 0x6f, 0xc9, 0xbc, 0xe9, 0x2e,
    0x2a, 0xbd, 0x76, 0x35, 0x7d, 0xbd, 0x08, 0x35, 0xd9, 0x3d,
    0x75, 0x9e, 0x9f, 0x3c, 0xd8, 0x64, 0x32, 0xbe, 0x22, 0x9e,
    0xd7, 0xbc, 0xd0, 0x4d, 0x53, 0xbd, 0x32, 0x8b, 0x81, 0x3d,
    0xaa, 0x8d, 0x6c, 0x3d, 0x15, 0xf1, 0x10, 0xbe, 0xaf, 0xe1,
    0xaa, 0x3d, 0x7d, 0xb6, 0xdc, 0x3c, 0xe5, 0x8d, 0xc0, 0xbd,
    0x18, 0x8b, 0xcb, 0xbd, 0xea, 0xb5, 0x32, 0xbe, 0xb1, 0xf9,
    0xca, 0xbc, 0xec, 0xdc, 0x0f, 0x3e, 0x1b, 0x7b, 0xf4, 0xbd,
    0xed, 0xd5, 0x36, 0x3d, 0x11, 0x17, 0xdd, 0x3d, 0x50, 0xe6,
    0x48, 0x3b, 0xfe, 0xed, 0x24, 0xbe, 0x3f, 0x62, 0x6d, 0xba,
    0x1f, 0x88, 0x3c, 0xbb, 0x14, 0x4d, 0x50, 0x3a, 0x2f, 0x3d,
    0xb2, 0x39, 0x9b, 0x7b, 0xbd, 0x3d, 0xa8, 0x8c, 0x25, 0xbc,
    0x66, 0xc9, 0x23, 0xbe, 0x5f, 0xe6, 0xf5, 0x3b, 0x3f, 0x2d,
    0x02, 0x3e, 0x78, 0xb9, 0x35, 0xbd, 0xbd, 0x28, 0x25, 0xbe,
    0x7b, 0xf2, 0x2d, 0xbd, 0x23, 0x60, 0xcf, 0x3d, 0x74, 0x15,
    0xd4, 0xbd, 0xc7, 0xd7, 0xd4, 0xbd, 0xaa, 0xdb, 0xd4, 0xbd,
    0x08, 0xc3, 0x07, 0x3b, 0x92, 0x9a, 0xd6, 0xb9, 0x6b, 0xe4,
    0x99, 0xbb, 0x6d, 0x09, 0xc0, 0xbb, 0x48, 0x8d, 0x01, 0x3e,
    0x53, 0x63, 0xad, 0x3b, 0x4d, 0x8d, 0x13, 0xbe, 0xf6, 0x76,
    0xb8, 0xbc, 0x85, 0xb0, 0x05, 0x3e, 0x33, 0x9a, 0xb1, 0xbd,
    0xd1, 0x90, 0xf6, 0xbd, 0x24, 0x4f, 0xbf, 0x3d, 0x6c, 0x3d,
    0x30, 0xbc, 0x6a, 0xc3, 0x05, 0xbe, 0x6b, 0x0d, 0x96, 0x3d,
    0x5a, 0x24, 0xa7, 0xbd, 0x19, 0x47, 0x59, 0xbd, 0x0b, 0xc6,
    0x35, 0x3d, 0x25, 0xef, 0x3e, 0x3d, 0x82, 0x2a, 0x24, 0xbe,
    0xd9, 0xfd, 0xda, 0xbd, 0x3d, 0xbf, 0x01, 0xbc, 0xcb, 0x89,
    0x97, 0x3d, 0x12, 0x37, 0x75, 0x3d, 0x6e, 0x9c, 0x06, 0xbe,
    0x0c, 0x16, 0x1a, 0xbe, 0x74, 0x48, 0xdd, 0x3c, 0xfa, 0x88,
    0x0d, 0x3e, 0x28, 0xcd, 0x10, 0xbe, 0xdc, 0xb6, 0x01, 0xbd,
    0x7c, 0xa5, 0xb7, 0x3d, 0x0e, 0x3f, 0x22, 0x3d, 0x2b, 0x0b,
    0x37, 0xbe, 0x6a, 0x54, 0x1f, 0x3c, 0xa4, 0x42, 0x21, 0x3e,
    0xc0, 0x90, 0xd7, 0xbd, 0xba, 0x99, 0x69, 0x3d, 0x1c, 0xf7,
    0xb7, 0xbd, 0x02, 0x89, 0x5d, 0xbd, 0xea, 0x18, 0x04, 0xbe,
    0x0f, 0x44, 0xad, 0xbd, 0x63, 0xb5, 0xed, 0x3d, 0xc7, 0xb1,
    0x4f, 0x3d, 0x23, 0x4b, 0x0a, 0xbe, 0x83, 0x6a, 0xbf, 0xbd,
    0x37, 0xca, 0x14, 0x39, 0x8c, 0x5d, 0xf7, 0x3d, 0x42, 0xd5,
    0x8a, 0x3c, 0x72, 0x9c, 0x3d, 0x3d, 0xc0, 0x91, 0x49, 0xbe,
    0xd3, 0x6d, 0xa0, 0xbd, 0x64, 0x4a, 0x8b, 0x3d, 0xf4, 0x5b,
    0xf7, 0x3c, 0xb3, 0x93, 0x88, 0xbd, 0x14, 0xbc, 0x3a, 0x3d,
    0x4f, 0xd5, 0xf5, 0xbd, 0x5d, 0x34, 0x0e, 0x3c, 0xf7, 0x24,
    0x08, 0xbc, 0x6c, 0x29, 0x59, 0x3d, 0xb9, 0xe6, 0xa0, 0x3c,
    0xf7, 0xbe, 0x0b, 0x3e, 0xee, 0x48, 0x05, 0x3e, 0x09, 0xfb,
    0x1d, 0xbe, 0x3e, 0xee, 0x0b, 0xbe, 0x0a, 0x76, 0xec, 0x3d,
    0xd3, 0xd0, 0xe5, 0xbd, 0x21, 0xe5, 0xd1, 0xbd, 0x3a, 0x86,
    0x00, 0x3e, 0x1a, 0x1d, 0xfe, 0x3d, 0xe5, 0x06, 0x45, 0x3b,
    0xc9, 0xa3, 0x25, 0xbe, 0xdc, 0x4e, 0xc9, 0xbc, 0x33, 0xee,
    0x21, 0x3b, 0xd6, 0xe8, 0xb8, 0xb9, 0x1c, 0x1c, 0x57, 0xbb,
    0x0d, 0x5d, 0xdc, 0xb8, 0x8c, 0x29, 0x37, 0x3b, 0x9d, 0x3f,
    0xb0, 0xba, 0xb0, 0xc2, 0x63, 0xbb, 0xe7, 0x9e, 0x98, 0x3a,
    0xd9, 0x4b, 0xbd, 0xbd, 0x3f, 0xaf, 0xf4, 0xbc, 0x96, 0x21,
    0xd9, 0x3d, 0xd5, 0x88, 0x80, 0x3d, 0x9e, 0x4c, 0x1c, 0x3e,
    0xa2, 0xf3, 0x49, 0xbd, 0xb0, 0x76, 0x27, 0xbe, 0xbe, 0x18,
    0xe8, 0xbc, 0x2b, 0x6b, 0x0e, 0x3e, 0x4d, 0x40, 0x29, 0xbe,
    0xd8, 0x28, 0x20, 0xbe, 0x67, 0x31, 0x00, 0xbe, 0xd9, 0x77,
    0xc2, 0xbd, 0x59, 0xff, 0x18, 0xbe, 0xf5, 0xf3, 0xd6, 0xbd,
    0x16, 0x92, 0xd4, 0x3c, 0x0d, 0x92, 0x36, 0x3d, 0x43, 0xeb,
    0x05, 0xbd, 0x3b, 0x13, 0x31, 0x3d, 0xaa, 0x77, 0x02, 0x3d,
    0xd0, 0x28, 0x23, 0xbd, 0x45, 0x0c, 0xa8, 0xbd, 0xc0, 0x7e,
    0x13, 0x3d, 0x15, 0x9d, 0x56, 0x3d, 0xec, 0xac, 0xcf, 0xbd,
    0xdd, 0xf0, 0x90, 0x3d, 0xcf, 0x44, 0xf8, 0x3d, 0xc0, 0x32,
    0x29, 0xbd, 0xfb, 0x3d, 0x6c, 0x3b, 0xa5, 0xa3, 0x3c, 0x3c,
    0xdb, 0xce, 0x2e, 0xbd, 0xb0, 0xe0, 0x72, 0xbb, 0xf3, 0x47,
    0x9e, 0xbd, 0xc7, 0xfb, 0x1f, 0xbe, 0x61, 0x43, 0x81, 0xbd,
    0xf3, 0x2d, 0xaf, 0xbd, 0x51, 0xbe, 0xeb, 0xbb, 0xa1, 0xf8,
    0x68, 0x3b, 0xe7, 0x9e, 0xf6, 0x3b, 0xe2, 0xa2, 0xa8, 0xbb,
    0xeb, 0x7c, 0xf8, 0xbd, 0x82, 0x8b, 0x48, 0x3d, 0xbc, 0x5e,
    0xd2, 0xbd, 0xa1, 0x6d, 0x43, 0x3d, 0xe1, 0xf3, 0x0d, 0x3b,
    0x44, 0x97, 0x8a, 0xbd, 0x3e, 0x49, 0x47, 0xbd, 0x91, 0x70,
    0x4f, 0x3d, 0xd1, 0xed, 0x8d, 0xbd, 0x6e, 0x14, 0x13, 0xbe,
    0x45, 0x5b, 0x0f, 0xbc, 0xb9, 0x3c, 0x01, 0x3e, 0x25, 0x03,
    0xc0, 0x3d, 0x5d, 0x05, 0x2d, 0x3d, 0xbd, 0x3e, 0xff, 0xbd,
    0x80, 0x7a, 0x7c, 0xbd, 0xe6, 0xbe, 0x63, 0xbd, 0xbe, 0xe4,
    0xbf, 0xbd, 0x3c, 0x58, 0xa4, 0xbc, 0x7a, 0x1d, 0xa0, 0x3d,
    0xc8, 0xa2, 0xe7, 0xbd, 0x69, 0x95, 0xf3, 0xbd, 0x17, 0xb7,
    0x19, 0x3d, 0x90, 0xba, 0xed, 0x3d, 0x5c, 0x6c, 0xb6, 0xbd,
    0x3e, 0xca, 0xcf, 0xbd, 0x04, 0x52, 0x60, 0x3c, 0x25, 0x68,
    0xac, 0x3d, 0x4c, 0x8c, 0x8c, 0x3d, 0x22, 0x0a, 0x27, 0x3d,
    0x3a, 0x13, 0xb0, 0xbd, 0x6f, 0xbf, 0xcb, 0xbd, 0x1f, 0xaf,
    0x9f, 0x3c, 0x68, 0x80, 0x04, 0xba, 0x13, 0x5d, 0xc1, 0xbc,
    0xa3, 0x33, 0xaa, 0xbb, 0x48, 0x16, 0x41, 0x3d, 0xb0, 0x5a,
    0x17, 0xbe, 0x4c, 0x1f, 0x19, 0xbd, 0xbd, 0x9e, 0x0b, 0x3e,
    0x5a, 0x23, 0x65, 0x3c, 0x81, 0x0e, 0xa3, 0xbd, 0x0d, 0x46,
    0x75, 0x3d, 0x6b, 0x86, 0x2b, 0xbd, 0x54, 0x87, 0x03, 0x3d,
    0xfb, 0xb0, 0x1e, 0xbe, 0xf5, 0xec, 0xb9, 0xbd, 0x88, 0xd3,
    0xd6, 0x3d, 0x4a, 0x67, 0xf6, 0xbd, 0x49, 0x58, 0x9f, 0xbd,
    0x8a, 0xb1, 0x11, 0xbe, 0x5f, 0xc1, 0x4b, 0xbe, 0xa2, 0xa1,
    0x60, 0xbd, 0xb5, 0x45, 0x12, 0xbe, 0x81, 0xda, 0xc3, 0xbc,
    0x1c, 0x38, 0xde, 0x3d, 0x82, 0x33, 0xab, 0xbd, 0x40, 0x0c,
    0xfb, 0x3d, 0x6f, 0x33, 0x8d, 0x3d, 0x9e, 0x0a, 0xf4, 0xbd,
    0xce, 0x9b, 0x2e, 0xbd, 0x9a, 0x4a, 0x2a, 0x3d, 0xc0, 0x48,
    0x16, 0xbe, 0x11, 0xd3, 0x0d, 0xbd, 0xa8, 0x6b, 0x13, 0x3e,
    0x42, 0xa1, 0xd8, 0xbd, 0x87, 0xd5, 0x11, 0xbe, 0xf1, 0xc0,
    0xfe, 0x3d, 0x5c, 0x9e, 0x6d, 0xbc, 0x89, 0x58, 0x93, 0xbb,
    0xe2, 0xdd, 0x98, 0xbc, 0x0d, 0xba, 0xf4, 0xbc, 0xef, 0x42,
    0x41, 0xbe, 0xaa, 0x62, 0x97, 0x3c, 0x58, 0xeb, 0x21, 0x3e,
    0x31, 0xbc, 0x19, 0xbe, 0x8c, 0x1e, 0xcf, 0xb8, 0x86, 0x38,
    0xb2, 0xba, 0x66, 0x7e, 0x97, 0x3a, 0x1c, 0xaf, 0x8e, 0xbb,
    0x63, 0x67, 0x91, 0xbc, 0x1b, 0x46, 0x1c, 0xbd, 0xb9, 0xb0,
    0x8d, 0xbd, 0x9b, 0x34, 0x01, 0x3a, 0xef, 0xd8, 0x98, 0xbd,
    0xb3, 0xfb, 0x0f, 0xbc, 0x92, 0x50, 0x62, 0xbd, 0xca, 0xca,
    0xea, 0xbb, 0xfd, 0x04, 0x88, 0xbd, 0x6e, 0x81, 0x21, 0xbc,
    0xb6, 0x73, 0xbb, 0x3d, 0x01, 0x40, 0xe3, 0x3c, 0xd3, 0xb5,
    0x9f, 0x3b, 0x1b, 0x9b, 0x8a, 0xbe, 0xc5, 0x67, 0x0e, 0xbf,
    0x5a, 0xcf, 0xe9, 0xbe, 0xf0, 0x7e, 0xc1, 0xbe, 0x12, 0x5f,
    0x9a, 0xbd, 0xcd, 0x53, 0x22, 0xbe, 0xeb, 0x97, 0x81, 0xbc,
    0xa5, 0x49, 0x94, 0xbd, 0x3f, 0x8b, 0x02, 0xbf, 0x4f, 0x2c,
    0xc6, 0xbe, 0x39, 0x73, 0xf0, 0xbe, 0x3e, 0xbd, 0x1e, 0xbb,
    0x35, 0x3f, 0xda, 0xbe, 0x2f, 0x19, 0xff, 0xbd, 0x2a, 0x6e,
    0x01, 0xbe, 0x91, 0xc2, 0xb0, 0xbd, 0xd8, 0xf1, 0xa2, 0xbe,
    0x21, 0x8f, 0xdc, 0xbd, 0xf9, 0x97, 0xfa, 0xbe, 0xa1, 0xdb,
    0x1e, 0xbf, 0x62, 0xaf, 0xe3, 0xbd, 0x79, 0x18, 0xa0, 0xbe,
    0x1d, 0xd1, 0x98, 0x3d, 0xa7, 0xa0, 0x2c, 0xbe, 0x73, 0xb4,
    0x02, 0xbe, 0xd3, 0xa1, 0x90, 0xbe, 0x09, 0x11, 0x07, 0xbe,
    0xd0, 0x1a, 0xc2, 0xbe, 0x0a, 0x6c, 0x13, 0xbf, 0xfc, 0x3d,
    0xbe, 0x3e, 0x20, 0x57, 0x8f, 0xbe, 0x68, 0xfe, 0xc9, 0xbe,
    0xad, 0x19, 0x46, 0xbd, 0x77, 0x1c, 0x0a, 0xbf, 0xd2, 0x1f,
    0x1a, 0xbf, 0x40, 0x51, 0xdc, 0xbe, 0x7a, 0xd5, 0xb8, 0xbe,
    0x68, 0xdb, 0xf1, 0xbe, 0xe2, 0x48, 0xd1, 0xbe, 0xcc, 0x0e,
    0xcb, 0xbe, 0x93, 0xd4, 0x0e, 0xbf, 0x07, 0x0e, 0xd1, 0xbe,
    0x3e, 0x66, 0xe1, 0xbe, 0x6b, 0x2f, 0xee, 0xbe, 0xde, 0x37,
    0xe4, 0xbe, 0xba, 0xa6, 0x93, 0xbe, 0xa5, 0x9c, 0x8e, 0xbe,
    0x34, 0x83, 0x32, 0xbe, 0xae, 0xe7, 0xe4, 0xbe, 0x84, 0x08,
    0x87, 0xbe, 0x86, 0xe9, 0xfd, 0xbe, 0x3a, 0xbc, 0x40, 0xbe,
    0xf6, 0x7f, 0x52, 0xbe, 0x3d, 0x1c, 0x8b, 0x3e, 0x46, 0xbe,
    0x34, 0x3f, 0x00, 0xd5, 0xad, 0xbe, 0x8c, 0xf3, 0x35, 0xbf,
    0x8b, 0xbf, 0x7c, 0xbe, 0x15, 0xc3, 0xb6, 0xbe, 0x4c, 0x75,
    0x78, 0xbe, 0x77, 0x74, 0xcb, 0xbe, 0x61, 0xde, 0x92, 0xbd,
    0x3a, 0x2f, 0x83, 0xbe, 0x23, 0x13, 0x59, 0xbe, 0x92, 0x2d,
    0x83, 0xbe, 0x9c, 0x35, 0x04, 0xbf, 0x56, 0xb6, 0x05, 0xbf,
    0xc4, 0xa4, 0xae, 0xbe, 0x95, 0xa3, 0x87, 0xbe, 0x62, 0x83,
    0xe8, 0xbe, 0x1a, 0x11, 0xa2, 0xbd, 0x27, 0x19, 0x0b, 0xbf,
    0x79, 0x8b, 0xc4, 0xbe, 0xb5, 0xff, 0x51, 0xbe, 0x3e, 0x77,
    0x82, 0xbe, 0x08, 0x07, 0xc3, 0xbe, 0x9e, 0x75, 0x8a, 0xbe,
    0xcd, 0x9d, 0x23, 0xbe, 0x19, 0x31, 0xf3, 0xbe, 0x27, 0xfb,
    0xf3, 0xbe, 0xc1, 0x52, 0xb6, 0xbe, 0x3a, 0x88, 0x26, 0xbf,
    0x1f, 0x60, 0xa2, 0xbe, 0x94, 0xc4, 0x2d, 0x3d, 0x80, 0xd3,
    0xf2, 0xbe, 0xfa, 0x59, 0x36, 0xbf, 0x29, 0x2b, 0xdb, 0xbe,
    0x74, 0x35, 0x1a, 0xbe, 0x53, 0x0a, 0xde, 0xbe, 0x4c, 0x51,
    0x43, 0xbe, 0x7d, 0x18, 0x8f, 0xbe, 0x61, 0x4a, 0xf4, 0xbe,
    0xc5, 0x96, 0xe3, 0xbd, 0xc1, 0xb9, 0x53, 0xbe, 0xf0, 0x95,
    0x1f, 0xbf, 0x26, 0x14, 0xd8, 0xbe, 0xe3, 0x50, 0x55, 0xbe,
    0xca, 0xf7, 0x8a, 0x3e, 0xac, 0xf7, 0xc0, 0xbe, 0x79, 0x2e,
    0xea, 0xbe, 0x04, 0x7b, 0x05, 0xbf, 0x69, 0x70, 0x9d, 0xbe,
    0x4a, 0x21, 0x18, 0x3f, 0x0f, 0x8c, 0x75, 0xbe, 0xf9, 0x7e,
    0x8c, 0xbe, 0x4c, 0x40, 0xd7, 0xbe, 0x39, 0x25, 0xc4, 0xbe,
    0x1c, 0x68, 0xec, 0xbe, 0x79, 0xc1, 0xd9, 0xbe, 0xf3, 0x32,
    0xc5, 0xbe, 0x05, 0x1e, 0xde, 0xbe, 0x61, 0xdd, 0xb7, 0xbe,
    0x9a, 0xa3, 0xab, 0xbe, 0x5b, 0x7c, 0xba, 0xbe, 0x33, 0x8d,
    0x14, 0xbf, 0x22, 0x17, 0x04, 0xbf, 0xbc, 0x93, 0x9d, 0x3e,
    0x53, 0x35, 0xc8, 0xbe, 0x27, 0xf5, 0x08, 0xbf, 0x8d, 0xcf,
    0x58, 0xbe, 0x22, 0xb4, 0x9d, 0xbe, 0x13, 0x5d, 0x6d, 0xbe,
    0xd3, 0x86, 0x80, 0xbe, 0xeb, 0x5d, 0x13, 0xbe, 0xd4, 0x6f,
    0xa0, 0xbd, 0x91, 0x98, 0x6a, 0xbe, 0x12, 0x66, 0x24, 0xbf,
    0x44, 0x61, 0x17, 0xbf, 0x4f, 0x12, 0x00, 0xbf, 0xfe, 0xbf,
    0xd5, 0xbe, 0x36, 0x30, 0xaf, 0xbe, 0x14, 0x73, 0x8a, 0xbe,
    0x38, 0x06, 0x4f, 0xbe, 0x2a, 0x24, 0x0a, 0xbe, 0xce, 0x97,
    0x91, 0xbd, 0x34, 0x7b, 0xb7, 0xbc, 0x26, 0x5c, 0x3c, 0x3c,
    0x69, 0xe6, 0x6b, 0x3d, 0xe8, 0x23, 0xea, 0x3d, 0x51, 0x5c,
    0x31, 0x3e, 0x68, 0x14, 0x6e, 0x3e, 0x49, 0x46, 0x96, 0x3e,
    0xf0, 0x58, 0xba, 0x3e, 0x98, 0x99, 0x98, 0x99, 0x88, 0x88,
    0x89, 0x99, 0x98, 0x89, 0x89, 0x99, 0x88, 0x89, 0x88, 0x99,
    0x89, 0x98, 0x99, 0x98, 0x89, 0x88, 0x88, 0x88, 0x99, 0x98,
    0x99, 0x88, 0x99, 0x99, 0x99, 0x98, 0x88, 0x98, 0x98, 0x99,
    0x89, 0x99, 0x89, 0x98, 0x89, 0x98, 0x89, 0x99, 0x89, 0x88,
    0x88, 0x98, 0x89, 0x99, 0x88, 0x98, 0x98, 0x99, 0x89, 0x89,
    0x89, 0x99, 0x88, 0x99, 0x88, 0x89, 0x98, 0x89, 0x88, 0x99,
    0x98, 0x98, 0x99, 0x98, 0x89, 0x98, 0x88, 0x99, 0x98, 0x89,
    0x99, 0x99, 0x89, 0x89, 0x98, 0x98, 0x98, 0x89, 0x99, 0x89,
    0x99, 0x99, 0x98, 0x88, 0x98, 0x99, 0x99, 0x99, 0x8a, 0x99,
    0x98, 0x88, 0x89, 0x98, 0x99, 0x88, 0x99, 0x98, 0x88, 0x89,
    0x99, 0x99, 0x99, 0x99, 0x98, 0x98, 0x98, 0x89, 0x98, 0x98,
    0x98, 0x89, 0x89, 0x99, 0x98, 0x89, 0x89, 0x88, 0x88, 0x89,
    0x89, 0x88, 0x99, 0x99, 0x99, 0x98, 0x89, 0x88, 0x99, 0x88,
    0x89, 0x89, 0x98, 0x89, 0x88, 0x88, 0x98, 0x88, 0x98, 0x99,
    0x99, 0x89, 0x98, 0x89, 0x98, 0x99, 0x99, 0x98, 0x99, 0x88,
    0x88, 0x88, 0x88, 0x89, 0x89, 0xa8, 0x89, 0x98, 0x99, 0x98,
    0x98, 0x88, 0x88, 0x98, 0x99, 0x99, 0x88, 0x9a, 0x98, 0x98,
    0x98, 0x98, 0x98, 0x98, 0x88, 0x88, 0x88, 0x89, 0x89, 0x89,
    0x99, 0x98, 0x89, 0x88, 0x99, 0x88, 0x99, 0x99, 0x98, 0x98,
    0x88, 0x89, 0x99, 0x89, 0x98, 0x88, 0x89, 0x89, 0x88, 0x99,
    0x89, 0x99, 0x98, 0x88, 0x88, 0x89, 0x99, 0x98, 0x99, 0x88,
    0x89, 0x88, 0x98, 0x89, 0x88, 0x88, 0x88, 0x98, 0x98, 0x99,
    0x98, 0x99, 0x98, 0x99, 0x88, 0x99, 0x89, 0x99, 0x98, 0x88,
    0x89, 0xa9, 0x88, 0x89, 0x89, 0x98, 0x99, 0x88, 0x98, 0x99,
    0x89, 0x98, 0x88, 0x98, 0x88, 0x99, 0x98, 0x99, 0x88, 0x99,
    0x98, 0x99, 0x99, 0x98, 0x99, 0x89, 0x89, 0x88, 0x99, 0x88,
    0x99, 0x88, 0x99, 0x89, 0x98, 0x99, 0x98, 0x88, 0x89, 0x98,
    0x89, 0x88, 0x89, 0x98, 0x98, 0x88, 0x98, 0x99, 0x99, 0x98,
    0x99, 0x88, 0x99, 0x88, 0x89, 0x99, 0x89, 0x98, 0x99, 0x98,
    0x99, 0x88, 0x98, 0x88, 0x89, 0x99, 0x98, 0x88, 0x99, 0x98,
    0x89, 0x98, 0x89, 0x98, 0x98, 0x99, 0x88, 0x88, 0x88, 0x88,
    0x89, 0x89, 0x89, 0x99, 0x89, 0x98, 0x98, 0x89, 0x88, 0x99,
    0xa9, 0x89, 0x88, 0x99, 0x88, 0x88, 0x89, 0x88, 0x98, 0x99,
    0x99, 0x88, 0x89, 0x99, 0x99, 0x88, 0x89, 0x88, 0x98, 0x88,
    0x89, 0x89, 0x99, 0x98, 0x98, 0x99, 0x88, 0x89, 0x98, 0x89,
    0x89, 0x89, 0x89, 0x88, 0x98, 0x88, 0x99, 0x98, 0x89, 0x88,
    0x89, 0x99, 0x88, 0x88, 0x89, 0x98, 0x88, 0x99, 0x99, 0x98,
    0x88, 0x89, 0x89, 0x98, 0x88, 0x98, 0x98, 0x98, 0x99, 0x89,
    0x89, 0x89, 0x99, 0x98, 0x98, 0x99, 0x99, 0x89, 0x99, 0x98,
    0x88, 0x98, 0x98, 0x99, 0x89, 0x9a, 0x89, 0x88, 0x99, 0x89,
    0x88, 0x89, 0x98, 0x88, 0x88, 0x98, 0x99, 0x88, 0x98, 0x88,
    0x88, 0x99, 0x99, 0x99, 0x89, 0x99, 0x89, 0x99, 0x89, 0x88,
    0x89, 0x99, 0x99, 0x98, 0x98, 0x88, 0x98, 0x89, 0x99, 0x99,
    0x89, 0x89, 0x88, 0x88, 0x89, 0x99, 0x88, 0x98, 0x89, 0x88,
    0x89, 0x98, 0x99, 0x89, 0x99, 0x98, 0x98, 0x88, 0x98, 0x98,
    0x98, 0x89, 0x88, 0x98, 0x88, 0x88, 0x99, 0xa8, 0x99, 0x99,
    0x89, 0x89, 0x99, 0x99, 0x99, 0x98, 0x9a, 0x89, 0x89, 0x88,
    0x99, 0x98, 0x98, 0x89, 0x99, 0x89, 0x99, 0x99, 0x99, 0x99,
    0x98, 0x88, 0x88, 0x99, 0xa9, 0x89, 0x99, 0x99, 0x98, 0xa9,
    0x88, 0x98, 0x99, 0x89, 0x89, 0x98, 0x98, 0x99, 0x98, 0x89,
    0x99, 0x88, 0x89, 0x98, 0x88, 0x89, 0x99, 0x88, 0x89, 0x99,
    0x88, 0x98, 0x89, 0x88, 0x98, 0x89, 0x98, 0x89, 0x88, 0x99,
    0x9a, 0x98, 0x89, 0x88, 0x89, 0x98, 0x89, 0x99, 0x89, 0x99,
    0x99, 0x98, 0x98, 0x98, 0x88, 0x88, 0x98, 0x99, 0x89, 0x99,
    0x99, 0x89, 0x99, 0x99, 0x98, 0x99, 0x99, 0x89, 0x89, 0x89,
    0x99, 0x98, 0x88, 0x99, 0x89, 0x89, 0x89, 0x98, 0x89, 0x88,
    0x88, 0x99, 0x89, 0x89, 0x88, 0x99, 0x88, 0x89, 0x99, 0x99,
    0x98, 0x89, 0x88, 0x98, 0x89, 0x88, 0x88, 0x89, 0x98, 0x89,
    0x88, 0x88, 0x88, 0x89, 0x98, 0x88, 0x88, 0x99, 0x98, 0x89,
    0x88, 0x88, 0x88, 0x99, 0x89, 0x88, 0x99, 0x89, 0x88, 0x98,
    0x99, 0x98, 0x98, 0x98, 0x99, 0x89, 0x99, 0x99, 0x99, 0x99,
    0x88, 0x98, 0x99, 0x89, 0x89, 0x88, 0x88, 0x89, 0x88, 0x99,
    0x99, 0x99, 0x89, 0x89, 0x99, 0x89, 0x89, 0x88, 0x88, 0x99,
    0x89, 0x98, 0xa8, 0x98, 0x98, 0x98, 0x99, 0x88, 0xa8, 0x98,
    0x89, 0x98, 0x99, 0x98, 0x98, 0x88, 0x99, 0x88, 0x98, 0x88,
    0x88, 0x89, 0x89, 0x88, 0x98, 0x99, 0x98, 0x89, 0x99, 0x89,
    0x99, 0x98, 0x99, 0x88, 0x99, 0x89, 0x88, 0x99, 0x88, 0x89,
    0x89, 0x89, 0x98, 0x88, 0x99, 0x88, 0x88, 0x89, 0x88, 0x99,
    0x89, 0x88, 0x99, 0x98, 0x99, 0x98, 0x88, 0x89, 0x99, 0xaa,
    0x88, 0x99, 0x88, 0x89, 0x99, 0x89, 0x98, 0x88, 0x89, 0x98,
    0x98, 0x88, 0x89, 0x98, 0x99, 0x9a, 0x89, 0x98, 0x98, 0x89,
    0x99, 0x89, 0x99, 0x98, 0x99, 0x89, 0x88, 0x99, 0x89, 0x98,
    0x99, 0x98, 0x88, 0x88, 0x99, 0x98, 0x98, 0x89, 0x89, 0x98,
    0x99, 0x98, 0x88, 0x89, 0x99, 0x88, 0x88, 0x88, 0x98, 0x89,
    0x98, 0x98, 0x89, 0x88, 0x88, 0x98, 0x88, 0x89, 0x99, 0x88,
    0xa8, 0x89, 0x89, 0x88, 0x98, 0x98, 0x98, 0x88, 0x99, 0x98,
    0x88, 0x99, 0x98, 0x89, 0x98, 0x99, 0x88, 0x89, 0x88, 0x88,
    0x89, 0x98, 0x99, 0x99, 0x99, 0x98, 0x88, 0x88, 0x98, 0x99,
    0x88, 0x99, 0x98, 0x89, 0x99, 0x99, 0x99, 0x99, 0x99, 0x98,
    0x88, 0x99, 0x89, 0x99, 0x99, 0x99, 0x99, 0x99, 0x99, 0x88,
    0x99, 0x98, 0x99, 0x99, 0x99, 0x99, 0x9a, 0xa8, 0x99, 0x89,
    0x98, 0x88, 0x89, 0x8a, 0x89, 0x98, 0x99, 0x98, 0x99, 0x89,
    0x89, 0x89, 0x99, 0x98, 0x89, 0x98, 0x88, 0x99, 0x99, 0x98,
    0x89, 0x98, 0x88, 0x99, 0x89, 0x89, 0x99, 0x99, 0x99, 0x8a,
    0x89, 0x98, 0x98, 0xaa, 0x88, 0x98, 0x98, 0x98, 0x88, 0x99,
    0x88, 0x88, 0x98, 0x99, 0x88, 0x88, 0x99, 0x99, 0x88, 0x98,
    0x88, 0x98, 0x98, 0x88, 0x88, 0x98, 0x99, 0x89, 0x99, 0x89,
    0x99, 0x88, 0x99, 0x98, 0x89, 0x89, 0x99, 0x99, 0x98, 0x98,
    0x88, 0x89, 0x88, 0x99, 0x98, 0x89, 0x88, 0x88, 0x98, 0x88,
    0x89, 0x89, 0x88, 0x88, 0x88, 0x89, 0x89, 0x98, 0x99, 0x98,
    0x98, 0x89, 0x89, 0x99, 0x89, 0x99, 0x99, 0x99, 0x88, 0x89,
    0x89, 0x88, 0x99, 0x98, 0x98, 0x99, 0x99, 0x99, 0x99, 0x88,
    0x98, 0x88, 0x88, 0x88, 0x89, 0x99, 0x9a, 0x89, 0x99, 0x88,
    0x99, 0x89, 0x98, 0x88, 0x88, 0x98, 0x89, 0x99, 0x98, 0x98,
    0x99, 0x88, 0x89, 0x89, 0x88, 0x99, 0x98, 0x99, 0x89, 0x89,
    0x99, 0x99, 0x98, 0x98, 0x98, 0x98, 0x89, 0x89, 0x89, 0x99,
    0x98, 0x89, 0x88, 0x89, 0x89, 0x98, 0x88, 0x99, 0x98, 0x99,
    0x88, 0x98, 0x99, 0x98, 0x98, 0x99, 0x99, 0x89, 0x99, 0x89,
    0x98, 0x98, 0x98, 0x98, 0x99, 0x99, 0x89, 0x88, 0x89, 0x98,
    0x88, 0x98, 0x88, 0x99, 0x98, 0x99, 0x88, 0x99, 0x89, 0x88,
    0x89, 0x99, 0x89, 0x89, 0x98, 0x89, 0x99, 0x99, 0x89, 0x89,
    0x88, 0x89, 0x88, 0x98, 0x98, 0x89, 0x88, 0x98, 0x89, 0x88,
    0x89, 0x89, 0x99, 0x99, 0x98, 0x88, 0x88, 0x99, 0x99, 0x98,
    0x89, 0x88, 0x88, 0x98, 0x98, 0x99, 0x98, 0x89, 0x88, 0x89,
    0x98, 0x89, 0x88, 0x98, 0x89, 0x99, 0x99, 0x89, 0x89, 0x98,
    0x89, 0x88, 0x88, 0x99, 0x88, 0x89, 0x89, 0x98, 0x99, 0x89,
    0x89, 0x99, 0x98, 0x98, 0x89, 0x98, 0x99, 0x99, 0x98, 0x88,
    0x99, 0x98, 0x89, 0x99, 0x98, 0x89, 0x88, 0x89, 0x99, 0x88,
    0x88, 0x88, 0x98, 0x8a, 0x99, 0x98, 0x98, 0x98, 0x98, 0x98,
    0x99, 0x88, 0x89, 0x89, 0x89, 0x89, 0x99, 0x98, 0x88, 0x99,
    0x88, 0x98, 0x89, 0x98, 0x89, 0x89, 0x89, 0x88, 0xa8, 0x88,
    0x99, 0x89, 0x88, 0x88, 0x98, 0x88, 0x99, 0x99, 0x89, 0x88,
    0x88, 0x89, 0x89, 0x9a, 0x98, 0x88, 0x88, 0x98, 0x89, 0x89,
    0x89, 0x98, 0x88, 0x98, 0x98, 0x89, 0x88, 0x98, 0x98, 0x99,
    0x89, 0x99, 0x89, 0x98, 0x99, 0x88, 0x89, 0x98, 0x98, 0x99,
    0x99, 0x88, 0x89, 0x98, 0x88, 0x89, 0x89, 0x89, 0x89, 0x99,
    0x89, 0x99, 0x99, 0xa9, 0x98, 0x88, 0x98, 0x99, 0x98, 0x88,
    0x99, 0x88, 0x88, 0x99, 0x98, 0x98, 0x89, 0x88, 0x98, 0x98,
    0x98, 0x98, 0x88, 0x99, 0x89, 0x88, 0x98, 0x88, 0x88, 0x98,
    0x89, 0x89, 0x99, 0x98, 0x98, 0x99, 0xa9, 0x98, 0x88, 0x98,
    0x89, 0x89, 0x88, 0x99, 0x99, 0x89, 0x89, 0x8a, 0x88, 0x99,
    0x98, 0x98, 0x88, 0x88, 0x99, 0x88, 0x99, 0x99, 0x99, 0x88,
    0x89, 0x88, 0x89, 0x98, 0x99, 0x88, 0x99, 0x99, 0x8a, 0x89,
    0x89, 0x99, 0x89, 0x88, 0x98, 0x88, 0x98, 0x99, 0x98, 0x99,
    0x88, 0x98, 0x98, 0x88, 0x88, 0x99, 0x98, 0x99, 0x99, 0x89,
    0x99, 0x99, 0x89, 0x88, 0x89, 0x99, 0x88, 0x98, 0x99, 0x98,
    0x89, 0x99, 0x98, 0x88, 0x88, 0x89, 0x98, 0x89, 0x88, 0x98,
    0x89, 0x88, 0x88, 0x88, 0x88, 0x98, 0x99, 0x98, 0x98, 0x89,
    0x98, 0x99, 0x89, 0x89, 0x88, 0x89, 0x88, 0x89, 0x98, 0x98,
    0x98, 0x99, 0x89, 0x98, 0x88, 0x89, 0x98, 0x98, 0x99, 0x88,
    0x89, 0x99, 0x88, 0x89, 0x89, 0x88, 0x89, 0x99, 0x88, 0x98,
    0x89, 0x98, 0x99, 0x99, 0x89, 0x98, 0x89, 0x98, 0x99, 0x89,
    0x88, 0x99, 0x99, 0x98, 0x88, 0x89, 0x99, 0x98, 0x99, 0x99,
    0x98, 0x99, 0x98, 0x99, 0x98, 0x98, 0x98, 0x98, 0x98, 0x89,
    0x88, 0x98, 0x88, 0x89, 0x98, 0x88, 0x88, 0x98, 0x88, 0x89,
    0x98, 0x88, 0x89, 0x99, 0x89, 0x88, 0x88, 0x99, 0x88, 0x98,
    0x98, 0x98, 0x98, 0x89, 0x89, 0x88, 0x88, 0x99, 0x88, 0x99,
    0x99, 0x89, 0x99, 0x88, 0x89, 0x98, 0x99, 0x99, 0x98, 0x99,
    0x88, 0x88, 0x99, 0x99, 0x88, 0x88, 0x99, 0x98, 0x99, 0x88,
    0x89, 0x98, 0x98, 0x89, 0x98, 0x89, 0x99, 0x89, 0x99, 0x88,
    0x99, 0x98, 0xa9, 0x88, 0x89, 0x9a, 0xa9, 0x98, 0x99, 0x89,
    0x88, 0x88, 0x88, 0x88, 0x89, 0x88, 0x99, 0x99, 0x88, 0x89,
    0x89, 0x99, 0x88, 0x89, 0x99, 0x98, 0x99, 0x99, 0x98, 0x99,
    0x89, 0x98, 0x99, 0x98, 0x99, 0x98, 0x99, 0x88, 0x98, 0x98,
    0x99, 0x98, 0x88, 0x89, 0x98, 0x88, 0x99, 0x8a, 0x89, 0x99,
    0x88, 0x98, 0x88, 0x98, 0x99, 0x98, 0x99, 0x98, 0x98, 0x99,
    0x99, 0x88, 0x98, 0x98, 0x99, 0x98, 0x99, 0x99, 0x98, 0x88,
    0x99, 0x99, 0x99, 0x98, 0x98, 0x89, 0x89, 0x99, 0x89, 0x99,
    0x98, 0x98, 0x98, 0x98, 0x99, 0x98, 0x99, 0x88, 0x89, 0x89,
    0x89, 0x89, 0x88, 0x89, 0x88, 0x99, 0x88, 0x89, 0x88, 0x88,
    0x99, 0x98, 0x89, 0x99, 0x88, 0x99, 0x89, 0x98, 0x89, 0x99,
    0x88, 0x89, 0x88, 0x89, 0x8a, 0x89, 0x98, 0x89, 0x88, 0x98,
    0x98, 0x99, 0x98, 0x89, 0x89, 0x99, 0x89, 0x99, 0x89, 0x99,
    0x98, 0x98, 0x98, 0x89, 0x89, 0x88, 0x99, 0x88, 0x99, 0x89,
    0x98, 0x99, 0x88, 0x99, 0x99, 0x88, 0x99, 0x89, 0x89, 0x99,
    0x89, 0x99, 0x98, 0x99, 0x99, 0x88, 0x98, 0x99, 0x88, 0x98,
    0x98, 0x98, 0x89, 0x99, 0x99, 0x89, 0x98, 0x88, 0x88, 0x89,
    0x98, 0x98, 0x99, 0x98, 0x88, 0x89, 0x88, 0x99, 0x99, 0x89,
    0x88, 0x98, 0x89, 0x88, 0x88, 0x88, 0x99, 0x99, 0x99, 0x99,
    0x99, 0x99, 0x99, 0x89, 0x88, 0x88, 0x98, 0x98, 0x99, 0x98,
    0x98, 0x89, 0x88, 0x99, 0x99, 0x89, 0x99, 0x89, 0x98, 0x98,
    0x88, 0x99, 0x99, 0x99, 0x98, 0x98, 0x89, 0x88, 0x99, 0x99,
    0x98, 0x99, 0x98, 0x89, 0x99, 0x99, 0x88, 0x88, 0x88, 0x99,
    0x89, 0x98, 0x98, 0x88, 0x99, 0x98, 0x88, 0x98, 0x89, 0x88,
    0x89, 0x89, 0x89, 0x99, 0x99, 0x89, 0x89, 0x89, 0x99, 0x98,
    0x88, 0x99, 0x98, 0x99, 0x98, 0x99, 0x89, 0xa8, 0x98, 0x88,
    0x99, 0x99, 0x88, 0x99, 0x99, 0x99, 0x99, 0x99, 0x99, 0x88,
    0x89, 0x99, 0x88, 0x98, 0x99, 0x99, 0x88, 0x99, 0x88, 0x88,
    0x89, 0x99, 0x98, 0x88, 0x88, 0x89, 0x98, 0x98, 0xa8, 0x89,
    0x98, 0x99, 0x89, 0x89, 0x99, 0x98, 0x88, 0x99, 0x88, 0x98,
    0x89, 0x99, 0xa9, 0x89, 0x98, 0x89, 0x89, 0x99, 0x98, 0x98,
    0x98, 0x98, 0x98, 0x99, 0x98, 0x98, 0x9a, 0x89, 0x88, 0x99,
    0x89, 0x99, 0x99, 0x88, 0x99, 0x98, 0x88, 0x98, 0x99, 0x99,
    0x99, 0x89, 0x89, 0x88, 0x8a, 0x89, 0x99, 0x99, 0x89, 0xa8,
    0x88, 0x89, 0x98, 0x98, 0x89, 0x88, 0x98, 0x99, 0x99, 0x88,
    0x99, 0x88, 0x89, 0x89, 0x89, 0x89, 0x89, 0x99, 0x98, 0x89,
    0x98, 0x9a, 0x99, 0x88, 0x98, 0x89, 0x88, 0x89, 0xa9, 0x98,
    0x98, 0x98, 0x89, 0x88, 0x98, 0x98, 0x99, 0x88, 0x98, 0x89,
    0x89, 0x89, 0x88, 0x98, 0x89, 0x99, 0x89, 0x99, 0x88, 0x89,
    0x99, 0x88, 0x89, 0x88, 0x88, 0x88, 0x98, 0x99, 0x88, 0x88,
    0x98, 0x98, 0x98, 0x99, 0x99, 0x89, 0x98, 0x89, 0x99, 0x98,
    0x99, 0x89, 0x99, 0x98, 0x99, 0x89, 0x89, 0x89, 0x88, 0x89,
    0x99, 0x89, 0x99, 0x89, 0x98, 0x88, 0x89, 0x98, 0x89, 0x98,
    0x98, 0x88, 0x88, 0x89, 0x89, 0x89, 0x98, 0x99, 0x98, 0x89,
    0x89, 0x99, 0x89, 0x88, 0x98, 0x98, 0x98, 0x9a, 0x88, 0x89,
    0x99, 0x98, 0x88, 0x98, 0x88, 0x99, 0x89, 0x98, 0x89, 0x88,
    0x98, 0x99, 0x99, 0x98, 0x89, 0x98, 0x99, 0x99, 0x89, 0x89,
    0x98, 0x89, 0x99, 0x98, 0x99, 0x98, 0x88, 0x98, 0x89, 0x98,
    0x98, 0x99, 0x98, 0x98, 0x89, 0x89, 0x98, 0x99, 0x88, 0x88,
    0x99, 0xa9, 0x99, 0x98, 0x88, 0x89, 0x98, 0x89, 0x88, 0x99,
    0x98, 0x88, 0x98, 0x98, 0x98, 0x89, 0x88, 0x99, 0x99, 0x99,
    0x98, 0x99, 0x98, 0x89, 0x98, 0x99, 0x89, 0x89, 0x89, 0x98,
    0x99, 0x89, 0x99, 0x88, 0x99, 0x88, 0x89, 0x89, 0x98, 0x88,
    0x89, 0x89, 0x88, 0x89, 0x88, 0x89, 0x99, 0x98, 0x88, 0x88,
    0x98, 0x98, 0x98, 0x98, 0x99, 0x88, 0x99, 0x99, 0x98, 0xa9,
    0x98, 0x98, 0x98, 0x98, 0x89, 0x98, 0x88, 0x98, 0x88, 0x99,
    0x98, 0x98, 0xa8, 0x98, 0x99, 0x89, 0x98, 0x99, 0x8a, 0x89,
    0x99, 0x99, 0x98, 0x99, 0x99, 0x88, 0x98, 0x89, 0x89, 0x88,
    0x89, 0x89, 0x88, 0x99, 0x88, 0x99, 0x89, 0x98, 0x98, 0x89,
    0x88, 0x99, 0x8a, 0x98, 0x89, 0x98, 0x88, 0x98, 0x89, 0x98,
    0x88, 0x99, 0x98, 0x89, 0x98, 0x99, 0x98, 0x99, 0x88, 0x99,
    0x89, 0x89, 0x99, 0x89, 0x99, 0x89, 0x98, 0x89, 0x88, 0x89,
    0x89, 0x88, 0x88, 0x89, 0x89, 0x88, 0x98, 0x89, 0x89, 0x98,
    0x88, 0x88, 0x99, 0x89, 0x89, 0x98, 0x89, 0x99, 0x99, 0x88,
    0x99, 0x88, 0x99, 0x89, 0x88, 0x89, 0x98, 0x89, 0x88, 0x98,
    0x99, 0x89, 0x89, 0x88, 0x99, 0x99, 0x88, 0x88, 0x89, 0x99,
    0x89, 0x88, 0x99, 0x99, 0x99, 0x98, 0x98, 0x98, 0x89, 0x89,
    0x89, 0x99, 0x88, 0x99, 0x98, 0x98, 0x98, 0x99, 0x88, 0x89,
    0x99, 0x98, 0x98, 0x88, 0x99, 0x88, 0x89, 0x99, 0x98, 0x89,
    0x88, 0x89, 0x98, 0x88, 0x99, 0x89, 0x99, 0x88, 0x88, 0x98,
    0x98, 0x89, 0x89, 0x98, 0x99, 0x89, 0x89, 0x99, 0x99, 0x98,
    0x88, 0x89, 0x99, 0x89, 0x89, 0x98, 0x98, 0x89, 0x89, 0x89,
    0x88, 0x99, 0x99, 0x99, 0x88, 0x88, 0x88, 0x89, 0x98, 0x99,
    0x98, 0x89, 0x98, 0x89, 0x98, 0x99, 0x99, 0x98, 0x99, 0x99,
    0x99, 0x89, 0x99, 0x99, 0x88, 0x88, 0x98, 0x98, 0x99, 0x98,
    0x98, 0x98, 0x89, 0x89, 0x88, 0x98, 0x98, 0x89, 0x88, 0x89,
    0x88, 0x89, 0x88, 0x89, 0x99, 0x89, 0x88, 0x99, 0x88, 0x88,
    0x8a, 0x89, 0x99, 0x89, 0x99, 0x99, 0x89, 0x89, 0x98, 0x99,
    0x88, 0x88, 0x89, 0x89, 0x98, 0x88, 0x88, 0x89, 0x99, 0x99,
    0x88, 0x98, 0x88, 0x98, 0x99, 0x99, 0x88, 0x98, 0x88, 0x89,
    0x98, 0x89, 0x98, 0x89, 0x99, 0x98, 0x89, 0x89, 0x99, 0x88,
    0x98, 0x89, 0x98, 0x89, 0x89, 0x88, 0x99, 0x99, 0x98, 0x99,
    0x88, 0x98, 0x99, 0x89, 0x88, 0x88, 0x88, 0x98, 0x89, 0x98,
    0x88, 0x89, 0x98, 0x88, 0x98, 0x88, 0x88, 0x99, 0x99, 0x98,
    0x88, 0x99, 0x98, 0x98, 0x88, 0x98, 0x98, 0x99, 0x88, 0x99,
    0x89, 0x99, 0x89, 0x88, 0x89, 0x88, 0x99, 0x99, 0x99, 0x99,
    0x98, 0x98, 0x98, 0x89, 0x98, 0x8a, 0x88, 0x98, 0x99, 0x98,
    0x98, 0x98, 0x88, 0x8a, 0x98, 0x88, 0x99, 0x99, 0x99, 0x99,
    0xa9, 0x99, 0x89, 0x99, 0x98, 0x88, 0x89, 0x98, 0x89, 0x99,
    0x89, 0x98, 0x89, 0x99, 0x89, 0x89, 0x98, 0x98, 0x98, 0x98,
    0x89, 0x98, 0x98, 0x99, 0x99, 0x99, 0x99, 0x99, 0x98, 0x99,
    0x98, 0x89, 0x88, 0x89, 0x99, 0x88, 0x89, 0x99, 0x89, 0x88,
    0x98, 0x89, 0x88, 0x98, 0x98, 0x89, 0x98, 0x99, 0x89, 0x89,
    0x88, 0x98, 0x88, 0x98, 0x89, 0x99, 0x99, 0x89, 0x99, 0x88,
    0x88, 0x89, 0x88, 0x98, 0x89, 0x89, 0x89, 0x98, 0x88, 0x98,
    0x89, 0x99, 0x89, 0x88, 0x99, 0x99, 0x88, 0x89, 0x88, 0x99,
    0x89, 0x98, 0x98, 0x99, 0x88, 0x89, 0x98, 0x99, 0x89, 0x88,
    0x98, 0x99, 0x89, 0x99, 0x99, 0x99, 0x89, 0x98, 0x89, 0x88,
    0x99, 0x88, 0x89, 0x98, 0x98, 0x98, 0x98, 0x98, 0x98, 0x98,
    0x89, 0x98, 0x88, 0x89, 0x88, 0x98, 0x89, 0x99, 0x89, 0x99,
    0x89, 0x99, 0x98, 0x98, 0x89, 0x89, 0x89, 0x98, 0xa9, 0x88,
    0x98, 0x88, 0x99, 0x89, 0x89, 0x99, 0x88, 0x99, 0x99, 0x88,
    0x9a, 0x99, 0x99, 0x89, 0x99, 0x99, 0x99, 0x99, 0x98, 0x89,
    0x89, 0x89, 0x88, 0x98, 0x98, 0x99, 0x88, 0x88, 0x99, 0x89,
    0x98, 0x98, 0x98, 0x98, 0xa9, 0x88, 0x98, 0x89, 0x88, 0x98,
    0x99, 0x98, 0xa8, 0x89, 0x99, 0x88, 0x89, 0x9a, 0x99, 0x98,
    0x99, 0x89, 0x89, 0x98, 0x99, 0x98, 0x89, 0x88, 0x88, 0x88,
    0x89, 0x88, 0x98, 0x98, 0x99, 0x98, 0x99, 0x89, 0x88, 0x88,
    0x88, 0x99, 0x99, 0x99, 0x99, 0x98, 0x98, 0x99, 0x99, 0x99,
    0x89, 0x98, 0x88, 0x98, 0x99, 0x98, 0x89, 0x88, 0x99, 0x99,
    0x88, 0x88, 0x89, 0x99, 0x89, 0x89, 0x99, 0x89, 0x99, 0x99,
    0x88, 0x99, 0x89, 0x88, 0x88, 0x98, 0x98, 0xa8, 0x89, 0x88,
    0x89, 0x99, 0x89, 0x89, 0x99, 0x89, 0x89, 0x88, 0x88, 0x98,
    0x98, 0x98, 0x89, 0x98, 0x89, 0x8a, 0x89, 0x98, 0x89, 0x89,
    0x98, 0x99, 0x99, 0x99, 0x89, 0x89, 0x99, 0x89, 0x99, 0x88,
    0x99, 0x88, 0x99, 0x99, 0x88, 0x99, 0x88, 0x99, 0x99, 0x98,
    0x99, 0x89, 0x98, 0xa8, 0x99, 0x89, 0x88, 0x89, 0x88, 0x89,
    0x98, 0x99, 0x99, 0x89, 0x88, 0x8a, 0x89, 0x98, 0x89, 0x98,
    0x89, 0x88, 0x98, 0x88, 0x89, 0x98, 0x98, 0x88, 0x99, 0x89,
    0x98, 0x89, 0x88, 0x98, 0x99, 0x99, 0x89, 0x99, 0x99, 0x89,
    0x88, 0x89, 0x99, 0x99, 0x98, 0x99, 0x88, 0x88, 0x89, 0x99,
    0x88, 0x88, 0x89, 0x89, 0x88, 0x89, 0x89, 0x89, 0x98, 0x98,
    0x88, 0x88, 0x88, 0x98, 0x88, 0x88, 0x88, 0x99, 0x99, 0x98,
    0x99, 0x98, 0x99, 0x89, 0xa9, 0x89, 0x89, 0x89, 0x88, 0x88,
    0x88, 0x89, 0x98, 0x89, 0x88, 0x99, 0x88, 0x89, 0x89, 0x98,
    0x88, 0x99, 0x99, 0x88, 0x98, 0x98, 0x88, 0x98, 0x99, 0x89,
    0x89, 0x89, 0x99, 0x89, 0x98, 0x98, 0x89, 0x99, 0x88, 0x99,
    0x99, 0x88, 0x88, 0x89, 0x98, 0x99, 0x99, 0x89, 0x89, 0x89,
    0x88, 0x88, 0x98, 0x89, 0x99, 0x99, 0x99, 0x89, 0x98, 0x88,
    0x99, 0x98, 0x98, 0x99, 0x88, 0x88, 0x98, 0x99, 0x99, 0x89,
    0x89, 0x89, 0x99, 0x88, 0x88, 0x88, 0x99, 0x99, 0x89, 0x89,
    0x89, 0x99, 0x89, 0x89, 0x88, 0x99, 0x98, 0x99, 0x88, 0x89,
    0x99, 0x9a, 0x99, 0x99, 0x99, 0x89, 0x99, 0x99, 0x89, 0x98,
    0x98, 0x99, 0x98, 0x89, 0xa9, 0x98, 0x99, 0x98, 0x88, 0x98,
    0x88, 0x98, 0x89, 0x88, 0x88, 0x89, 0x89, 0x98, 0x98, 0x99,
    0x98, 0x88, 0x88, 0x99, 0x98, 0x98, 0x88, 0x99, 0x89, 0x88,
    0x88, 0x88, 0x99, 0x98, 0x98, 0x98, 0x88, 0x88, 0x98, 0x99,
    0x88, 0x88, 0x89, 0x88, 0x98, 0x99, 0x88, 0x99, 0x98, 0x98,
    0x89, 0x89, 0x88, 0x98, 0x98, 0x99, 0x98, 0x99, 0x89, 0x88,
    0x98, 0x98, 0x98, 0x98, 0x89, 0x88, 0x98, 0x88, 0x99, 0x98,
    0x89, 0x98, 0x98, 0x89, 0x89, 0x89, 0x98, 0x98, 0x88, 0x98,
    0x8b, 0xa7, 0xa8, 0x9b, 0xa7, 0xd8, 0x8a, 0xb8, 0x89, 0x97,
    0x98, 0xaa, 0x88, 0x99, 0xac, 0x8b, 0xac, 0xda, 0xa9, 0x7b,
    0x96, 0xaa, 0x79, 0x7a, 0x9a, 0xaa, 0x97, 0xba, 0x86, 0x6a,
    0x89, 0x9b, 0xab, 0x67, 0xca, 0x68, 0x69, 0xe9, 0xa8, 0x87,
    0xc8, 0xca, 0xca, 0xa8, 0x88, 0xbb, 0x59, 0x9b, 0xad, 0xa8,
    0x9a, 0x8b, 0x7a, 0x7a, 0x68, 0xa8, 0xb8, 0x88, 0x89, 0x99,
    0xb9, 0x68, 0x89, 0x8b, 0xa8, 0xc7, 0x68, 0x88, 0xb7, 0x66,
    0x88, 0xb9, 0x88, 0x89, 0x79, 0x88, 0x86, 0x59, 0x8a, 0xa6,
    0x88, 0x9c, 0x87, 0x76, 0x66, 0x77, 0x87, 0x7a, 0x86, 0xa6,
    0x88, 0x7b, 0x78, 0x86, 0x77, 0x97, 0xa6, 0x87, 0x9a, 0x99,
    0xa7, 0x8a, 0xba, 0x9a, 0xaa, 0xa8, 0xa6, 0xa7, 0x79, 0xaa,
    0xa8, 0x9b, 0x99, 0xa9, 0x87, 0xb8, 0x9a, 0x77, 0xbb, 0xa9,
    0xa8, 0x99, 0x89, 0xb7, 0xba, 0x87, 0xab, 0xab, 0x8b, 0xa9,
    0x98, 0x9a, 0x86, 0x58, 0x87, 0xb8, 0x8a, 0x87, 0xa8, 0xb8,
    0x7a, 0x89, 0x96, 0x9b, 0xa9, 0x86, 0x48, 0x48, 0x77, 0x76,
    0x75, 0x77, 0x99, 0x86, 0x68, 0x88, 0x65, 0x87, 0x6a, 0x95,
    0x88, 0xa8, 0xb6, 0x98, 0xa9, 0xaa, 0xb6, 0x87, 0x7b, 0x97,
    0x7a, 0x77, 0xa7, 0xd5, 0x98, 0x96, 0x89, 0xa6, 0x48, 0xc7,
    0x8b, 0x67, 0xb6, 0xa7, 0xb7, 0x77, 0x56, 0x67, 0xd6, 0x98,
    0xaa, 0xb6, 0xa7, 0xb9, 0x98, 0x8b, 0x9a, 0xa6, 0x97, 0xa9,
    0x88, 0x97, 0x7a, 0x78, 0x97, 0x7a, 0x97, 0xa9, 0xaa, 0x7a,
    0x4b, 0x69, 0x98, 0x7a, 0x86, 0x7a, 0x87, 0xa9, 0x98, 0xba,
    0x7a, 0x7a, 0xa7, 0x99, 0x8c, 0xe8, 0x7a, 0x79, 0xa9, 0xab,
    0x65, 0x8a, 0x79, 0x8a, 0x8b, 0x68, 0x76, 0x75, 0xaa, 0xa7,
    0x9b, 0xb7, 0x76, 0xb9, 0x7a, 0x76, 0xa6, 0x78, 0x7a, 0x79,
    0x6a, 0x88, 0x95, 0x89, 0x98, 0x87, 0x66, 0x68, 0x37, 0xa7,
    0x65, 0x5c, 0x94, 0x88, 0x87, 0x87, 0x68, 0x68, 0x78, 0x89,
    0x96, 0x86, 0xa9, 0x55, 0x4a, 0x63, 0x76, 0x76, 0x66, 0x77,
    0x87, 0xb4, 0x68, 0xb8, 0x89, 0x88, 0xa7, 0x97, 0x96, 0x67,
    0x67, 0x88, 0x57, 0x88, 0x44, 0x77, 0x47, 0x66, 0x94, 0x34,
    0x96, 0x65, 0x89, 0x95, 0x68, 0x87, 0x53, 0xaa, 0x66, 0x7a,
    0x66, 0x77, 0x78, 0x69, 0x6a, 0x75, 0x84, 0x76, 0x89, 0x75,
    0x98, 0x56, 0x87, 0xaa, 0x89, 0x6b, 0xa7, 0x68, 0x98, 0x99,
    0x78, 0xb6, 0x79, 0x99, 0x88, 0x87, 0x78, 0x66, 0xa9, 0x76,
    0x47, 0x76, 0x68, 0xa7, 0x7b, 0xa8, 0x68, 0x87, 0x88, 0x78,
    0x79, 0x96, 0x97, 0x6a, 0x75, 0xa9, 0x87, 0x97, 0x89, 0xb8,
    0x46, 0x66, 0x89, 0x69, 0x99, 0x79, 0x88, 0x95, 0x7a, 0x87,
    0xa4, 0xa6, 0x97, 0x78, 0x88, 0x87, 0x89, 0xca, 0xa7, 0x9b,
    0x99, 0x65, 0x99, 0x76, 0x73, 0x57, 0x9a, 0x97, 0x58, 0x75,
    0xa4, 0xa8, 0xa8, 0x87, 0x99, 0x26, 0x89, 0x89, 0x95, 0x6c,
    0x78, 0x57, 0x79, 0x68, 0x98, 0x88, 0x87, 0xa7, 0x88, 0x89,
    0x97, 0x76, 0x8a, 0x97, 0x76, 0x98, 0x88, 0x7a, 0x48, 0x79,
    0x76, 0x88, 0x58, 0x79, 0x56, 0x67, 0x79, 0x65, 0x6a, 0x2a,
    0x79, 0x86, 0x66, 0x68, 0x79, 0x97, 0xba, 0x77, 0x66, 0x67,
    0x38, 0x9b, 0x67, 0x6a, 0x99, 0x6a, 0x97, 0x96, 0x79, 0xaa,
    0x9a, 0x8a, 0x68, 0x68, 0xc6, 0x79, 0xa6, 0x9a, 0xb9, 0x78,
    0xac, 0xba, 0xa5, 0x9a, 0x86, 0x76, 0xda, 0x6c, 0x97, 0x96,
    0x75, 0xb7, 0x96, 0xa9, 0x78, 0x87, 0xab, 0xca, 0x77, 0x96,
    0x98, 0x89, 0x66, 0x6a, 0x87, 0x7a, 0x6c, 0xb8, 0x87, 0x67,
    0x89, 0xab, 0xbb, 0xad, 0x89, 0x86, 0x69, 0x8a, 0x6d, 0xb7,
    0xba, 0x75, 0x76, 0x66, 0x89, 0xbb, 0x96, 0x6a, 0x8d, 0x77,
    0x98, 0xa8, 0xd9, 0xa8, 0x99, 0x8a, 0xcb, 0x8b, 0x9a, 0x8a,
    0x98, 0xa7, 0x9a, 0xba, 0x8b, 0xe9, 0xbb, 0xbb, 0x9b, 0xab,
    0xd8, 0x9b, 0xa7, 0x97, 0x8b, 0xa9, 0x9c, 0xcc, 0x78, 0xa9,
    0x89, 0x9a, 0x98, 0xa9, 0x9a, 0xab, 0xb7, 0xb8, 0x99, 0x7b,
    0xbb, 0xaa, 0x79, 0xaa, 0xab, 0xcc, 0xbc, 0xad, 0xa9, 0xaa,
    0xba, 0x8a, 0x9a, 0x89, 0x98, 0x98, 0xab, 0x9a, 0xc7, 0xac,
    0x99, 0x8b, 0x8f, 0x6a, 0x88, 0x9b, 0x89, 0x8b, 0x78, 0xa7,
    0x97, 0x97, 0xab, 0x78, 0x79, 0x9b, 0x69, 0x7c, 0x88, 0xa9,
    0x9c, 0xe7, 0x8b, 0xbc, 0x9a, 0x89, 0xba, 0x8a, 0xaa, 0x59,
    0x8a, 0x9a, 0xa8, 0xcb, 0x76, 0x6d, 0x87, 0x7b, 0x8a, 0xb8,
    0xaa, 0x68, 0x7c, 0xb8, 0xa9, 0x5c, 0xb9, 0xba, 0x9c, 0xca,
    0x67, 0x6b, 0x79, 0x9b, 0xab, 0xba, 0xab, 0x7b, 0x69, 0x6a,
    0x88, 0x77, 0x9a, 0xc6, 0xbc, 0x8b, 0x88, 0x8c, 0x89, 0x9b,
    0x99, 0xa9, 0xb8, 0xaa, 0x89, 0xbc, 0xa7, 0x78, 0x8c, 0x99,
    0x69, 0x9b, 0xaa, 0xb8, 0xa7, 0xac, 0x7b, 0x98, 0xc8, 0x9b,
    0xaa, 0x9b, 0xb6, 0x58, 0x7a, 0xa9, 0xaa, 0xaa, 0x85, 0x49,
    0x9d, 0x8b, 0x9a, 0x8b, 0xaa, 0x88, 0x79, 0xc9, 0xac, 0x5c,
    0x78, 0x9b, 0x9a, 0xaa, 0x5c, 0xab, 0x99, 0x9c, 0x9b, 0x89,
    0x6d, 0x8b, 0xa8, 0x67, 0x89, 0x89, 0x9a, 0xa7, 0x8b, 0x7b,
    0xac, 0x6a, 0xa9, 0x9b, 0xab, 0xa7, 0xca, 0x8a, 0xa6, 0x7c,
    0xa8, 0xa9, 0x9a, 0xa5, 0x79, 0xb5, 0x98, 0xa9, 0xbb, 0x5b,
    0xa9, 0xb8, 0x97, 0x9b, 0xa7, 0x8a, 0x98, 0x86, 0xac, 0x7b,
    0x88, 0x86, 0x86, 0x76, 0x7c, 0x9a, 0xa8, 0x69, 0xca, 0x98,
    0x86, 0xba, 0xab, 0x6a, 0x89, 0xba, 0x9b, 0x96, 0x79, 0xc7,
    0x99, 0x8a, 0x86, 0x89, 0xa9, 0xa5, 0xa9, 0x88, 0xaa, 0x9a,
    0xb7, 0xa6, 0x68, 0x9b, 0xca, 0x7a, 0x8a, 0xc9, 0x89, 0x66,
    0xc9, 0x7a, 0x79, 0xaa, 0x95, 0xc9, 0x96, 0x87, 0x98, 0x95,
    0x9a, 0x78, 0xa8, 0x6b, 0xa6, 0xa7, 0xba, 0x7b, 0xb6, 0x97,
    0x76, 0x86, 0x8b, 0x7c, 0xa8, 0x68, 0x79, 0x76, 0x8b, 0x98,
    0x87, 0xb8, 0xb8, 0x69, 0xe9, 0x6a, 0xcb, 0x97, 0xb6, 0x97,
    0x7a, 0xb7, 0x87, 0xbc, 0x79, 0x89, 0xa8, 0x78, 0x8a, 0xa4,
    0x8c, 0x69, 0xa5, 0x85, 0xa7, 0xba, 0x75, 0x89, 0xcb, 0x78,
    0x86, 0xba, 0xac, 0xbb, 0x68, 0x9b, 0xc8, 0x87, 0x79, 0xd8,
    0x87, 0x98, 0x68, 0xb8, 0x87, 0x69, 0x7a, 0xa5, 0xca, 0x78,
    0x39, 0xa8, 0xaa, 0x7c, 0x8a, 0x7b, 0x96, 0xa6, 0xaa, 0xbb,
    0x79, 0xaa, 0x8a, 0x8b, 0xbb, 0xb9, 0xac, 0xa8, 0x87, 0xa9,
    0x95, 0xab, 0x6c, 0x8a, 0xb7, 0x75, 0xb5, 0xb4, 0xa9, 0x98,
    0x7b, 0xa8, 0x77, 0x99, 0x8c, 0xac, 0xbc, 0xaa, 0xa9, 0x36,
    0x69, 0xc5, 0xb3, 0x8b, 0x8a, 0xb7, 0x85, 0x88, 0x27, 0xa5,
    0x78, 0x78, 0x76, 0x97, 0x76, 0x96, 0xa9, 0x69, 0x76, 0x68,
    0x66, 0xa4, 0x99, 0x57, 0x27, 0x55, 0x89, 0x68, 0x86, 0x67,
    0x97, 0x75, 0x89, 0x99, 0x9a, 0x77, 0x94, 0x97, 0x96, 0x66,
    0x47, 0x69, 0x66, 0x69, 0x62, 0x99, 0x5a, 0x67, 0x96, 0x46,
    0x78, 0x53, 0x88, 0xa4, 0x76, 0xa7, 0x62, 0xaa, 0x76, 0x88,
    0x58, 0x77, 0x78, 0x37, 0x59, 0x74, 0xa3, 0x86, 0x99, 0x95,
    0x75, 0x59, 0x49, 0x86, 0x67, 0x67, 0x67, 0x68, 0x95, 0x8a,
    0x49, 0x59, 0x97, 0x7a, 0x86, 0x75, 0x87, 0x67, 0x39, 0x46,
    0x89, 0x97, 0x66, 0x57, 0x87, 0x99, 0x67, 0x88, 0x66, 0x59,
    0x75, 0x87, 0x96, 0x75, 0x77, 0x69, 0x77, 0x69, 0x64, 0x77,
    0x67, 0x76, 0x67, 0x77, 0x76, 0x45, 0x6a, 0x76, 0x87, 0x66,
    0x64, 0x77, 0x68, 0x66, 0x66, 0x77, 0x77, 0xa6, 0x77, 0x68,
    0x65, 0x76, 0xa7, 0x57, 0x48, 0x55, 0x79, 0x86, 0x55, 0x6b,
    0x97, 0x58, 0x97, 0xa7, 0x69, 0x78, 0x97, 0xa9, 0x76, 0x76,
    0x65, 0x53, 0x67, 0x76, 0x78, 0x46, 0x77, 0x67, 0x8a, 0x85,
    0x59, 0x76, 0x84, 0x69, 0x7a, 0x96, 0xa6, 0x58, 0x77, 0xaa,
    0x65, 0x48, 0x55, 0x78, 0x44, 0x66, 0x65, 0x68, 0x67, 0x76,
    0x49, 0x76, 0x44, 0x88, 0x55, 0x87, 0x75, 0x86, 0xa5, 0x66,
    0x97, 0x76, 0xa6, 0x97, 0x66, 0x66, 0x96, 0x65, 0x95, 0x67,
    0xaa, 0x9b, 0xb9, 0x6a, 0xb7, 0x98, 0xa6, 0x8b, 0xf9, 0x77,
    0x7b, 0xa8, 0x96, 0x7b, 0x87, 0x78, 0xeb, 0x8a, 0x97, 0xa7,
    0x86, 0xc8, 0x88, 0xaa, 0x68, 0x75, 0x7f, 0xc8, 0x99, 0xa5,
    0x96, 0x7a, 0x85, 0xaa, 0x98, 0x66, 0x6d, 0xc7, 0x64, 0x57,
    0xab, 0x6c, 0xdb, 0x7d, 0xa9, 0x97, 0x8a, 0x9b, 0x79, 0x97,
    0xb9, 0x97, 0x86, 0x65, 0x98, 0xcc, 0x98, 0x7a, 0x8e, 0x79,
    0x8a, 0xa6, 0x89, 0x4a, 0xc9, 0x86, 0x78, 0x99, 0xa5, 0xaa,
    0xa4, 0x86, 0xc9, 0x89, 0xaa, 0xca, 0xc6, 0xab, 0xa8, 0x44,
    0xcb, 0x4a, 0xa7, 0xcb, 0xa6, 0xb9, 0xbe, 0xbb, 0x89, 0x98,
    0x8b, 0xca, 0xa9, 0x99, 0x99, 0x89, 0xb9, 0x79, 0x8d, 0xbb,
    0xdc, 0x89, 0x74, 0x4a, 0xad, 0x59, 0xab, 0xac, 0x99, 0x95,
    0xca, 0x7b, 0x6b, 0xab, 0xbb, 0x74, 0xb5, 0x45, 0xba, 0xab,
    0x68, 0x5c, 0xa8, 0x89, 0x98, 0xa5, 0xaa, 0xa8, 0x79, 0x89,
    0xc7, 0x98, 0xcc, 0x89, 0xac, 0x97, 0xc9, 0x9b, 0x9b, 0x99,
    0xab, 0xc7, 0xac, 0xbc, 0xca, 0xad, 0xc8, 0x78, 0xa9, 0xb9,
    0x9a, 0xc7, 0xb8, 0x8d, 0x8b, 0xaa, 0xaa, 0x9c, 0xa8, 0x89,
    0xbb, 0x88, 0x9a, 0xcb, 0xad, 0xaa, 0xb8, 0x9a, 0xaa, 0xb6,
    0xac, 0xcd, 0x88, 0xac, 0xbb, 0xbb, 0xcb, 0x8c, 0xab, 0x79,
    0xba, 0xa9, 0xb9, 0x9d, 0x9a, 0x97, 0x7b, 0x7c, 0xa9, 0x8c,
    0x98, 0xc6, 0xc8, 0x98, 0x87, 0x79, 0xa8, 0x57, 0x9a, 0x98,
    0x49, 0xa7, 0xaa, 0x79, 0xad, 0xba, 0x69, 0xdc, 0x97, 0x9c,
    0x6a, 0x98, 0x87, 0x48, 0x88, 0xab, 0x97, 0xab, 0x84, 0x47,
    0x79, 0x88, 0x46, 0x79, 0x97, 0xa8, 0x67, 0x98, 0x9b, 0x67,
    0xca, 0xda, 0x7b, 0xd9, 0x5b, 0x9b, 0x89, 0x8e, 0x88, 0x6a,
    0x8d, 0x68, 0x97, 0x69, 0x79, 0xaa, 0x87, 0xb5, 0x98, 0xab,
    0x68, 0x69, 0x88, 0x6d, 0x7a, 0xaa, 0x8a, 0x97, 0x87, 0x6c,
    0xc7, 0x68, 0x9b, 0x8a, 0x59, 0xba, 0xbb, 0x89, 0xc9, 0x9b,
    0x78, 0xba, 0xb6, 0x68, 0x87, 0x95, 0x56, 0x59, 0x88, 0xaa,
    0x67, 0x97, 0x73, 0x49, 0x7d, 0x76, 0x99, 0xa9, 0xa6, 0x99,
    0x8b, 0x89, 0xca, 0x58, 0xa9, 0x95, 0x7d, 0xba, 0x4b, 0xba,
    0xa9, 0x8b, 0x8a, 0x5a, 0x7a, 0x67, 0x97, 0x78, 0xc6, 0xa8,
    0xb9, 0x75, 0x6a, 0x68, 0x8b, 0x86, 0xa6, 0x9b, 0xac, 0xa5,
    0xa9, 0x9b, 0xb8, 0x9d, 0xba, 0xe9, 0xac, 0x99, 0x98, 0xb6,
    0x9a, 0xb9, 0xac, 0x8c, 0xba, 0xbc, 0xa9, 0x7b, 0xb9, 0x89,
    0x9b, 0x89, 0x8b, 0xa9, 0x99, 0x86, 0x76, 0x88, 0x9b, 0xaa,
    0xa6, 0xab, 0xac, 0xd9, 0xb5, 0x89, 0xb9, 0x6a, 0xca, 0x9b,
    0x8b, 0xb6, 0x7a, 0xb7, 0x89, 0x9b, 0x98, 0xa8, 0x8a, 0xb7,
    0xac, 0x7b, 0xaa, 0xcc, 0xc9, 0x87, 0x87, 0x99, 0xea, 0x6b,
    0x9b, 0xcc, 0xda, 0xb9, 0x89, 0x8e, 0xd9, 0xb9, 0x67, 0xc8,
    0x87, 0x98, 0xb9, 0xb9, 0x77, 0x99, 0x77, 0x79, 0xcc, 0x89,
    0x9b, 0x67, 0xc8, 0x79, 0xa6, 0xc6, 0xaa, 0xb7, 0xb9, 0x89,
    0x6b, 0x99, 0x9b, 0x9e, 0x9b, 0xb8, 0xba, 0xc8, 0xb9, 0xc9,
    0xa7, 0xcb, 0x88, 0x7b, 0xf9, 0x79, 0xd7, 0xd8, 0x89, 0xa9,
    0xbd, 0x76, 0x97, 0xa6, 0x6c, 0x68, 0xc8, 0x98, 0xb9, 0x8a,
    0x57, 0x79, 0xca, 0x7c, 0x9c, 0xd7, 0xbb, 0xba, 0x68, 0x8a,
    0xbb, 0xa9, 0x69, 0xc8, 0x7b, 0x87, 0xb8, 0xa8, 0x78, 0x89,
    0x76, 0x79, 0xc7, 0x97, 0x7a, 0x87, 0xb7, 0xda, 0x8a, 0x89,
    0x86, 0x97, 0x88, 0x7b, 0x6a, 0x98, 0x97, 0x87, 0x98, 0xb8,
    0x99, 0x98, 0xba, 0x99, 0xa8, 0x9a, 0x6e, 0x99, 0xa7, 0x89,
    0x76, 0xb7, 0x99, 0x88, 0xb8, 0xa8, 0x67, 0xa8, 0x6b, 0xab,
    0xa7, 0xdd, 0x8b, 0x89, 0x68, 0xa6, 0xa7, 0x7a, 0xab, 0xb5,
    0x88, 0x67, 0x89, 0x88, 0x66, 0x58, 0xa5, 0xa7, 0x78, 0x84,
    0xa9, 0x88, 0x68, 0x79, 0x76, 0x77, 0x97, 0x46, 0x18, 0x54,
    0x45, 0x75, 0x56, 0x88, 0x95, 0x79, 0x6a, 0x68, 0x67, 0x77,
    0x76, 0x85, 0xb7, 0x74, 0x96, 0x78, 0x67, 0x88, 0x74, 0x76,
    0x46, 0x64, 0x77, 0x54, 0x85, 0x72, 0x69, 0x94, 0x97, 0x89,
    0x54, 0x87, 0x57, 0x75, 0x66, 0x87, 0x99, 0x38, 0x48, 0x65,
    0x81, 0x85, 0xa8, 0xa3, 0x55, 0x66, 0x58, 0x96, 0x76, 0x66,
    0x85, 0x77, 0x9a, 0x96, 0x69, 0x27, 0x88, 0x5a, 0x66, 0x77,
    0x75, 0x87, 0x49, 0x67, 0x88, 0x67, 0x67, 0x59, 0x85, 0x86,
    0xb9, 0x97, 0x77, 0x68, 0x86, 0x99, 0xa5, 0x77, 0x6a, 0x78,
    0x69, 0x66, 0x43, 0x6b, 0x8b, 0x76, 0x78, 0x67, 0x67, 0x44,
    0x78, 0x88, 0x68, 0x88, 0x85, 0x97, 0x75, 0x8a, 0x56, 0x99,
    0x56, 0x67, 0x88, 0x95, 0x76, 0x89, 0xaa, 0x75, 0x88, 0x77,
    0x79, 0x97, 0x84, 0x78, 0x86, 0x79, 0x87, 0x96, 0x68, 0x67,
    0x87, 0xa9, 0x96, 0x6a, 0x77, 0x44, 0x58, 0x68, 0xa7, 0x78,
    0x86, 0x88, 0x99, 0x89, 0x79, 0x96, 0x78, 0x77, 0x88, 0x96,
    0x66, 0x7a, 0x66, 0x89, 0x77, 0x88, 0x77, 0x86, 0x38, 0x65,
    0x78, 0x55, 0x78, 0x85, 0x69, 0x85, 0x79, 0x77, 0x89, 0x77,
    0xa8, 0x68, 0x75, 0x65, 0x77, 0xb7, 0x76, 0x6a, 0x97, 0x67,
    0x88, 0x65, 0xb8, 0x6b, 0xc8, 0x8a, 0xa8, 0x99, 0x96, 0x98,
    0x98, 0xa8, 0xa9, 0xaa, 0x9b, 0x88, 0xb6, 0x8b, 0x78, 0x96,
    0xcc, 0x8a, 0x97, 0x88, 0x87, 0xa9, 0x9d, 0x8a, 0x78, 0x7a,
    0x7b, 0xbb, 0x77, 0xab, 0xa7, 0x9c, 0x97, 0xaa, 0xa9, 0x79,
    0xaa, 0xc7, 0x77, 0x68, 0x9b, 0x87, 0xa9, 0xab, 0xa9, 0x98,
    0xab, 0x5a, 0x69, 0x86, 0xab, 0x89, 0x88, 0x86, 0x8a, 0xbc,
    0x7a, 0x6d, 0x8b, 0x7b, 0x88, 0x79, 0xa9, 0x88, 0xd9, 0x97,
    0xa9, 0x89, 0x99, 0xa8, 0x84, 0x9b, 0xba, 0x88, 0x7a, 0xa9,
    0xb9, 0xcd, 0x88, 0x68, 0xe9, 0x7e, 0xab, 0x98, 0xa8, 0xab,
    0x9a, 0x9c, 0xb9, 0xaa, 0x8c, 0x98, 0x98, 0x9a, 0xb9, 0xab,
    0x8a, 0xa9, 0x79, 0x9a, 0xbe, 0x8a, 0x99, 0x8a, 0x6d, 0x9b,
    0xad, 0x9f, 0xaa, 0x97, 0xda, 0x9b, 0xac, 0xbb, 0xba, 0x8a,
    0x86, 0x88, 0xb8, 0xdb, 0xaa, 0x9c, 0xbf, 0x7a, 0x9b, 0xb7,
    0xdb, 0xaa, 0xa9, 0x7c, 0xcb, 0x8a, 0x77, 0x69, 0xa9, 0x96,
    0xa9, 0xbc, 0x9b, 0x99, 0xa8, 0xcb, 0x8d, 0x86, 0xba, 0x7b,
    0xa8, 0x97, 0x77, 0xaa, 0x8c, 0xa9, 0x88, 0xca, 0x9a, 0x9d,
    0xaa, 0x99, 0xcc, 0xa8, 0xab, 0xb9, 0xcb, 0xaa, 0xbd, 0xbb,
    0x98, 0x89, 0x9a, 0xa8, 0xbb, 0xba, 0x98, 0x99, 0xba, 0xa9,
    0x9b, 0x8c, 0x89, 0x77, 0xc7, 0xa9, 0x87, 0xbc, 0x7c, 0x7b,
    0x8c, 0x7a, 0xab, 0x87, 0xb9, 0xa7, 0x89, 0x98, 0xb9, 0x8a,
    0xa7, 0xa9, 0x9c, 0x89, 0x69, 0xa9, 0x9a, 0xa9, 0xa9, 0xaa,
    0xbc, 0xb9, 0x89, 0xa9, 0x98, 0x8a, 0x79, 0x58, 0x9a, 0xaa,
    0x59, 0xb9, 0x87, 0x59, 0x89, 0x88, 0x8a, 0x8b, 0x77, 0x89,
    0x96, 0xc9, 0xa9, 0x67, 0x99, 0xd6, 0x9a, 0xb6, 0x6a, 0xa9,
    0x9a, 0xac, 0x7a, 0x66, 0x8b, 0xaa, 0x8b, 0x6a, 0x97, 0xab,
    0xa7, 0x87, 0x6a, 0x7d, 0x97, 0x87, 0x97, 0x9c, 0x7b, 0xc7,
    0x79, 0x97, 0xa7, 0x4c, 0xb8, 0xb8, 0x99, 0x88, 0x59, 0xc8,
    0xa7, 0xb8, 0xba, 0x68, 0xaa, 0xba, 0xa7, 0x66, 0x77, 0x86,
    0x66, 0x47, 0x9c, 0xaa, 0x77, 0x9b, 0x85, 0x49, 0x9b, 0x86,
    0x67, 0xab, 0xa7, 0xc9, 0x88, 0x8a, 0xaa, 0x57, 0xa7, 0xa5,
    0x89, 0xc7, 0x6b, 0xc7, 0x69, 0x98, 0x99, 0xa9, 0x5b, 0x78,
    0x99, 0x58, 0xb8, 0x78, 0xc8, 0x95, 0x67, 0x69, 0xa8, 0x77,
    0x98, 0xb9, 0xaa, 0x8b, 0x68, 0x88, 0xb9, 0xa8, 0x9b, 0xa8,
    0x99, 0x9b, 0x78, 0xb9, 0xa8, 0x88, 0xa6, 0xa6, 0xa9, 0x9a,
    0x89, 0xa8, 0x89, 0xa9, 0x8a, 0x7a, 0x99, 0xa5, 0x87, 0x8a,
    0x76, 0x79, 0x7b, 0x9a, 0xa9, 0xbb, 0xa7, 0xa9, 0xda, 0xaa,
    0xaa, 0x89, 0x88, 0xaa, 0x98, 0xb9, 0x88, 0xa9, 0x98, 0x89,
    0xa9, 0x98, 0x87, 0x86, 0x9a, 0xab, 0xa9, 0xaa, 0x9a, 0x79,
    0x88, 0x85, 0xb6, 0x68, 0x89, 0xa8, 0xb9, 0x85, 0x89, 0x8d,
    0xb9, 0xba, 0x75, 0xb8, 0x98, 0x87, 0xb9, 0x87, 0x98, 0xa9,
    0xa9, 0x8b, 0xab, 0x67, 0xa9, 0x8a, 0xba, 0x6a, 0xc5, 0xd8,
    0x99, 0xaa, 0xc8, 0x66, 0x8c, 0xc5, 0x9a, 0x9a, 0xa9, 0x7d,
    0x89, 0x98, 0x78, 0x98, 0x89, 0xeb, 0x85, 0x8c, 0xa7, 0x67,
    0xca, 0x97, 0xc9, 0x87, 0xa7, 0xaa, 0x69, 0xa6, 0x9d, 0x67,
    0x87, 0x79, 0xa9, 0x8b, 0x96, 0x7a, 0xe7, 0x8c, 0x9a, 0xa8,
    0xcb, 0x79, 0x89, 0x8a, 0xb7, 0x76, 0xa8, 0xb9, 0x87, 0x97,
    0xa9, 0x89, 0x98, 0x99, 0x7a, 0x77, 0x8b, 0x8a, 0x6a, 0x56,
    0x67, 0xa6, 0x77, 0x99, 0x97, 0x88, 0x78, 0x9a, 0x6d, 0xb8,
    0x76, 0x88, 0x98, 0xb6, 0xa7, 0x79, 0x8b, 0xa8, 0x97, 0xa7,
    0x65, 0x89, 0xa6, 0xaa, 0xb7, 0x86, 0xd9, 0x97, 0xca, 0x9a,
    0x98, 0x78, 0xa7, 0x77, 0x86, 0x78, 0x88, 0x9b, 0x67, 0x76,
    0x85, 0x79, 0xaa, 0x98, 0x88, 0x59, 0x58, 0x97, 0x76, 0x74,
    0x86, 0x88, 0x74, 0x96, 0x79, 0x8b, 0x89, 0x58, 0x67, 0x86,
    0xa9, 0x46, 0x5a, 0x77, 0x85, 0x86, 0x67, 0xaa, 0x86, 0x76,
    0x7a, 0xab, 0x87, 0x88, 0x87, 0x86, 0x86, 0x98, 0x77, 0x77,
    0x79, 0x98, 0x77, 0x97, 0x46, 0x36, 0x85, 0x56, 0x76, 0x79,
    0xa9, 0x96, 0x89, 0xa6, 0x66, 0xa9, 0x69, 0x8a, 0xa8, 0x68,
    0x86, 0x69, 0x69, 0x76, 0x96, 0x66, 0x78, 0x85, 0x86, 0x78,
    0x98, 0x89, 0x6a, 0x6a, 0xa8, 0x77, 0x87, 0x88, 0x58, 0x8b,
    0x76, 0x88, 0x68, 0xa9, 0xa8, 0x5b, 0x48, 0x76, 0x97, 0x99,
    0x76, 0x6a, 0x89, 0x9c, 0xa8, 0xb8, 0x77, 0x6b, 0x99, 0x89,
    0x9c, 0xab, 0x77, 0xa8, 0x78, 0x99, 0x66, 0x7a, 0x77, 0x97,
    0x7a, 0x88, 0x66, 0x87, 0x9a, 0xa5, 0x88, 0x86, 0x85, 0x9a,
    0x77, 0x77, 0x86, 0x57, 0x78, 0x77, 0x7b, 0x7d, 0x86, 0x66,
    0xa7, 0x58, 0x76, 0x66, 0x79, 0x87, 0x66, 0x69, 0x97, 0x77,
    0x88, 0x88, 0x79, 0x6a, 0x88, 0x69, 0x67, 0x97, 0x84, 0x55,
    0x68, 0x95, 0x66, 0x58, 0x6a, 0x7b, 0x97, 0x97, 0x69, 0xac,
    0x67, 0x6b, 0x76, 0x97, 0xa5, 0x78, 0x45, 0x69, 0x96, 0x68,
    0x66, 0x87, 0x5c, 0x55, 0x59, 0x56, 0x88, 0x66, 0x69, 0x86,
    0x55, 0xa7, 0x95, 0x8a, 0x77, 0xba, 0xb9, 0x9a, 0x59, 0xa9,
    0xb9, 0xa6, 0x76, 0x67, 0xa8, 0x97, 0x94, 0xa6, 0xa8, 0x97,
    0x76, 0x9a, 0x88, 0x69, 0x98, 0x97, 0xc9, 0x5d, 0x88, 0x89,
    0x87, 0xba, 0x88, 0x69, 0x6b, 0x79, 0xa6, 0x7a, 0x76, 0x97,
    0x9c, 0xa9, 0xb8, 0xa9, 0x89, 0xab, 0x79, 0x99, 0xaa, 0x58,
    0x58, 0x7a, 0x47, 0xa9, 0x76, 0xaa, 0x57, 0x89, 0x8c, 0x77,
    0x99, 0x77, 0x5a, 0x78, 0x5a, 0xca, 0x89, 0x78, 0xa6, 0x87,
    0x36, 0x66, 0x57, 0x69, 0x6b, 0x6b, 0x46, 0x7b, 0x9a, 0x87,
    0x87, 0x69, 0xa8, 0x8a, 0x89, 0x7a, 0xc9, 0x78, 0xa6, 0xa7,
    0xc9, 0x7a, 0x8a, 0xb9, 0xb6, 0x9b, 0xb9, 0x76, 0xb9, 0x77,
    0xaa, 0xaa, 0x89, 0x99, 0x8b, 0xaa, 0x89, 0x98, 0x8b, 0x99,
    0xab, 0x9a, 0x98, 0xb9, 0x89, 0x99, 0xa6, 0x89, 0x9c, 0xac,
    0x56, 0x69, 0x9b, 0x67, 0x8a, 0x8c, 0x89, 0x98, 0x9a, 0x8a,
    0x88, 0x99, 0x98, 0x86, 0xb7, 0x67, 0x7a, 0xbb, 0x99, 0x7b,
    0x9b, 0x89, 0x98, 0xb6, 0x9c, 0xa7, 0xc9, 0x7a, 0xa8, 0xc7,
    0xa8, 0xb9, 0x9b, 0xa6, 0xc8, 0xb8, 0x89, 0x99, 0xb9, 0x69,
    0x9b, 0xaa, 0xcc, 0x5b, 0xc9, 0xac, 0xc6, 0xa7, 0x97, 0xac,
    0xda, 0x78, 0x7c, 0xb7, 0xa7, 0x9a, 0xa9, 0xae, 0x7b, 0x89,
    0x98, 0xaa, 0xab, 0xbd, 0x8a, 0x8c, 0x9a, 0xb6, 0xac, 0x9c,
    0x99, 0xa9, 0x8a, 0xac, 0x8c, 0xb9, 0x8b, 0x78, 0x87, 0xb7,
    0x99, 0xcb, 0x98, 0x7c, 0xab, 0x7c, 0x9a, 0xc8, 0xab, 0x79,
    0xc9, 0xa6, 0x98, 0x4a, 0xa6, 0xc9, 0xa7, 0x9c, 0x58, 0xc9,
    0x9b, 0xb9, 0xb7, 0x7a, 0xaa, 0x77, 0xd8, 0x78, 0x56, 0xb4,
    0x78, 0x58, 0x99, 0xa9, 0x57, 0x79, 0x95, 0x69, 0x7a, 0x95,
    0x7c, 0x96, 0x83, 0x99, 0xbb, 0xaa, 0xbe, 0x55, 0x99, 0x95,
    0x6b, 0x89, 0x59, 0xac, 0x89, 0x99, 0xac, 0x7b, 0x9a, 0xa8,
    0x9c, 0x85, 0xb7, 0x66, 0xa7, 0xa7, 0x76, 0x67, 0xbe, 0x85,
    0x87, 0xa8, 0x6a, 0xda, 0x87, 0x8a, 0x66, 0x9d, 0xa8, 0xb9,
    0x8b, 0x98, 0x58, 0xcc, 0x98, 0xb9, 0x89, 0x6a, 0xb8, 0xca,
    0x96, 0xa9, 0x98, 0x68, 0x76, 0x47, 0x8c, 0x89, 0xa7, 0x9b,
    0x85, 0x5b, 0x9d, 0x97, 0x86, 0xab, 0xc9, 0xb8, 0x88, 0x8b,
    0x98, 0x69, 0xd9, 0xc9, 0x6b, 0xc5, 0x79, 0xa9, 0x8a, 0x8b,
    0xa4, 0x89, 0x89, 0x99, 0x7b, 0xab, 0xb7, 0x9b, 0xa9, 0x96,
    0x8a, 0x97, 0xb7, 0x87, 0x88, 0x8a, 0x97, 0x7b, 0x88, 0x89,
    0x8d, 0xa9, 0xa6, 0xa9, 0x97, 0x9c, 0x6a, 0x85, 0x99, 0x89,
    0x95, 0x47, 0x9a, 0x64, 0x68, 0x97, 0xa9, 0xb8, 0xa7, 0x8a,
    0x98, 0x6a, 0xaa, 0x67, 0x89, 0x8a, 0x7a, 0x97, 0xab, 0xba,
    0x7a, 0x7a, 0xac, 0xb8, 0x58, 0x6b, 0x5b, 0x89, 0x89, 0x7c,
    0x78, 0x87, 0xa9, 0x96, 0x9c, 0x9a, 0x97, 0xc6, 0x9b, 0x99,
    0x79, 0xaa, 0x78, 0x77, 0xb4, 0xa8, 0x87, 0x9b, 0xa8, 0x87,
    0x89, 0x59, 0x59, 0x8a, 0x99, 0x98, 0xa7, 0x79, 0x87, 0x8a,
    0x88, 0xa5, 0x9a, 0x69, 0x88, 0x57, 0x6c, 0x76, 0x6c, 0xa5,
    0x78, 0x78, 0x69, 0x79, 0x66, 0x95, 0x98, 0x48, 0x88, 0x98,
    0x7a, 0x8a, 0xab, 0x76, 0xba, 0x89, 0x97, 0x77, 0x98, 0xa7,
    0x8b, 0x78, 0xa6, 0x7c, 0x95, 0x86, 0x79, 0x97, 0x87, 0x97,
    0x86, 0x76, 0x99, 0x9a, 0xa8, 0x79, 0xa8, 0xa9, 0xb7, 0xa4,
    0x67, 0x8b, 0x9b, 0x77, 0x98, 0x76, 0x79, 0x8a, 0x97, 0x86,
    0xa7, 0x99, 0xa6, 0x9c, 0xb8, 0x8b, 0xaa, 0x6a, 0x86, 0x97,
    0x9a, 0x84, 0x9a, 0x66, 0x98, 0x5a, 0x87, 0x9b, 0x97, 0xa7,
    0x9a, 0xb7, 0x9c, 0xa6, 0x87, 0x8b, 0x89, 0x8a, 0x8a, 0x89,
    0x74, 0x98, 0x67, 0xab, 0x97, 0x69, 0xa6, 0x7c, 0xa9, 0x97,
    0x59, 0x78, 0x66, 0x6b, 0xa7, 0x9c, 0xa9, 0x87, 0x97, 0x76,
    0x89, 0x89, 0xbb, 0x65, 0x87, 0x9a, 0x98, 0x86, 0xb6, 0x66,
    0x99, 0x88, 0x96, 0x86, 0xa8, 0xb8, 0x98, 0x86, 0xc9, 0x67,
    0x8a, 0x7a, 0xa5, 0xa9, 0xb8, 0x64, 0x9a, 0x88, 0xb6, 0x5a,
    0xb5, 0xc3, 0x97, 0x77, 0xa8, 0x95, 0xab, 0xb4, 0x86, 0x9b,
    0x9a, 0x4a, 0x4b, 0x69, 0x66, 0x79, 0x7a, 0xba, 0x98, 0x8a,
    0xaa, 0x87, 0xa9, 0x79, 0x58, 0x95, 0x58, 0x6b, 0x6a, 0x96,
    0x9c, 0x56, 0x77, 0x58, 0x57, 0x7b, 0x69, 0x58, 0xc9, 0x7c,
    0x99, 0xa6, 0xa9, 0x87, 0x89, 0x8a, 0xb7, 0xc7, 0x97, 0x99,
    0xaa, 0x8a, 0xb9, 0x85, 0xaa, 0x79, 0x83, 0x59, 0x69, 0x75,
    0x88, 0xaa, 0xda, 0x5a, 0xb9, 0xca, 0x96, 0x76, 0xc9, 0x58,
    0x9b, 0xa6, 0x78, 0x9b, 0x8a, 0x6b, 0x8b, 0x89, 0x86, 0xb7,
    0x88, 0xac, 0x79, 0x9b, 0x98, 0x98, 0x99, 0x79, 0x88, 0x98,
    0x89, 0x89, 0x6a, 0x95, 0x9a, 0xa7, 0x96, 0xa7, 0x87, 0x68,
    0xa5, 0x77, 0x78, 0x6d, 0x87, 0x99, 0x86, 0x86, 0x99, 0x76,
    0xa6, 0xa6, 0xa9, 0x59, 0xab, 0x9b, 0xba, 0x55, 0xaa, 0x79,
    0x74, 0x47, 0x5a, 0x95, 0x8b, 0xa9, 0xc8, 0x6c, 0xaa, 0x95,
    0x97, 0x85, 0xc8, 0x54, 0xac, 0x96, 0x88, 0xac, 0x8b, 0x67,
    0x6c, 0x5a, 0x76, 0xb8, 0x8a, 0x99, 0x8a, 0x9c, 0x96, 0x7d,
    0x77, 0x8b, 0x79, 0x89, 0x67, 0x79, 0x68, 0x75, 0x87, 0x7a,
    0x8a, 0xa9, 0x66, 0xeb, 0xa3, 0x96, 0x6a, 0x8a, 0x97, 0x76,
    0x7a, 0x7c, 0xa9, 0x8a, 0x89, 0xca, 0xa8, 0xa9, 0x98, 0x8c,
    0x89, 0xaa, 0x99, 0x9a, 0x66, 0xab, 0x99, 0x75, 0xb9, 0x99,
    0xdb, 0x9c, 0xda, 0x9e, 0xa9, 0x8a, 0xb9, 0xac, 0x99, 0xaa,
    0x7b, 0xac, 0x9a, 0xab, 0xbd, 0xb9, 0xab, 0x9a, 0x9a, 0xaf,
    0x9b, 0x9d, 0x8a, 0xaa, 0x88, 0xac, 0xaa, 0x89, 0x77, 0xa7,
    0x7a, 0xaa, 0x98, 0xac, 0x9c, 0xca, 0xa8, 0xa9, 0xab, 0xc8,
    0x9a, 0x8d, 0xac, 0xa7, 0x88, 0x97, 0xc9, 0x9a, 0x69, 0x8b,
    0x9b, 0xc9, 0x9a, 0x9d, 0x98, 0x96, 0x89, 0xa9, 0x87, 0x6a,
    0xa8, 0xb5, 0xb9, 0x7a, 0xb9, 0x58, 0xaa, 0x9c, 0x9a, 0x78,
    0xb9, 0x88, 0x9b, 0x95, 0x7a, 0x9b, 0xa7, 0x5a, 0x9b, 0xc9,
    0x86, 0x88, 0x7b, 0xa7, 0xa7, 0xbc, 0x88, 0xbb, 0x99, 0xba,
    0x59, 0x8a, 0x69, 0x79, 0x7a, 0xaa, 0x8a, 0x87, 0xaa, 0x97,
    0x98, 0xc9, 0xb6, 0x8a, 0xa8, 0x7b, 0x98, 0xaa, 0xaa, 0xab,
    0xaa, 0x98, 0x8a, 0x66, 0x98, 0xaa, 0xa9, 0x8a, 0x89, 0x78,
    0x79, 0x88, 0x86, 0x68, 0x8b, 0xc5, 0xba, 0x78, 0xac, 0xa9,
    0x8a, 0x78, 0x78, 0x88, 0x8a, 0x57, 0x78, 0xa8, 0x88, 0xaa,
    0x6a, 0x99, 0x78, 0x99, 0xba, 0x89, 0xab, 0x8a, 0xdb, 0xda,
    0x96, 0xcb, 0xab, 0xa9, 0x79, 0x7b, 0xab, 0x88, 0xaa, 0x77,
    0x9b, 0x8a, 0xb8, 0xb9, 0x87, 0x89, 0xb7, 0x87, 0x9b, 0x78,
    0x9a, 0x9d, 0xa7, 0xa9, 0x99, 0x88, 0x97, 0x88, 0xa7, 0x88,
    0xad, 0x9c, 0x78, 0xa6, 0x99, 0xaa, 0x95, 0x4a, 0xba, 0xa4,
    0x76, 0x9a, 0xa9, 0xca, 0xa9, 0x6b, 0xaa, 0x89, 0x99, 0x4a,
    0x76, 0x73, 0x7b, 0x9b, 0xab, 0xba, 0xa7, 0xa9, 0xba, 0xc9,
    0xa8, 0x6b, 0x8e, 0xbb, 0x97, 0xac, 0x7a, 0x99, 0xc8, 0x7c,
    0xab, 0x88, 0x89, 0xa6, 0xab, 0x9c, 0xca, 0xbc, 0xb7, 0x97,
    0xa6, 0xb9, 0xa6, 0x7a, 0x97, 0xab, 0xaa, 0x86, 0x5a, 0x9a,
    0xc9, 0x87, 0xb7, 0xa9, 0xa8, 0x88, 0xa9, 0xb9, 0x8a, 0xb8,
    0x96, 0xa6, 0xca, 0xa5, 0xa8, 0x76, 0xb9, 0x6b, 0xb8, 0x97,
    0xa8, 0x86, 0xb9, 0xb4, 0x99, 0x89, 0x69, 0x9c, 0xbb, 0x5b,
    0xa9, 0xb9, 0x67, 0xaa, 0x9a, 0x8b, 0x7b, 0xaa, 0xa7, 0xb9,
    0x99, 0xba, 0x79, 0xba, 0x7a, 0x7a, 0xa6, 0x97, 0x9b, 0x69,
    0x86, 0xaa, 0xaa, 0xa7, 0x9a, 0x96, 0x9a, 0x9c, 0x9a, 0x9b,
    0xb9, 0x7c, 0x89, 0x8b, 0xcd, 0xe7, 0x98, 0xc8, 0xab, 0x8b,
    0xc9, 0x76, 0x8a, 0x89, 0x84, 0x69, 0xad, 0xa4, 0x98, 0x87,
    0xa8, 0xaa, 0xba, 0xba, 0xb6, 0x87, 0xc8, 0x65, 0x8b, 0xb8,
    0x77, 0x9c, 0x8d, 0xba, 0x9d, 0x79, 0xca, 0xe9, 0xaa, 0xc9,
    0x8b, 0x7d, 0xa8, 0x7c, 0xa9, 0x89, 0xaa, 0x89, 0xdc, 0x67,
    0x79, 0x9a, 0x79, 0x8a, 0xb7, 0xb8, 0x98, 0x99, 0xa7, 0x87,
    0xaa, 0x8b, 0x98, 0xa9, 0xba, 0x76, 0x79, 0x8c, 0xca, 0x8a,
    0x99, 0x88, 0x97, 0x99, 0x88, 0xb4, 0xa9, 0x98, 0x75, 0x38,
    0xbb, 0x64, 0x69, 0x78, 0xab, 0x7a, 0xb7, 0xc4, 0x86, 0x68,
    0xb7, 0x34, 0x8a, 0xb7, 0x88, 0xa9, 0x4d, 0x7a, 0x9a, 0x69,
    0xa6, 0xa7, 0x85, 0xbc, 0x66, 0x6b, 0xb7, 0x6b, 0xb7, 0x96,
    0x68, 0x96, 0x7b, 0x49, 0x76, 0x74, 0x66, 0x69, 0xb7, 0x97,
    0x78, 0xa8, 0x83, 0x66, 0x86, 0x7d, 0x86, 0x68, 0xa7, 0x45,
    0x69, 0x8b, 0xa7, 0x99, 0xa6, 0x78, 0x87, 0x9b, 0xa8, 0x62,
    0x99, 0x88, 0x94, 0x17, 0x8a, 0x75, 0xab, 0x7a, 0xb8, 0x5b,
    0xb7, 0xc4, 0x88, 0x98, 0x97, 0x22, 0x9c, 0xc6, 0x86, 0x9b,
    0x5a, 0x5a, 0x5b, 0x98, 0x76, 0xb7, 0x79, 0xab, 0x66, 0x5b,
    0xa6, 0x6a, 0xc9, 0x7b, 0x58, 0x87, 0x49, 0x49, 0x85, 0x94,
    0x8b, 0x57, 0x65, 0x56, 0x67, 0xab, 0x82, 0x77, 0x8b, 0x7a,
    0x93, 0x76, 0x78, 0x77, 0x78, 0x7c, 0x87, 0x8b, 0xa7, 0x88,
    0x9b, 0x9b, 0xa9, 0x81, 0x9a, 0x89, 0x74, 0x37, 0x8a, 0xa4,
    0x8c, 0x87, 0x97, 0x6a, 0x88, 0xa6, 0x97, 0x76, 0x68, 0x34,
    0x7d, 0xa5, 0x7a, 0x97, 0x9a, 0xaa, 0x59, 0x89, 0x97, 0x89,
    0x67, 0xb9, 0x88, 0x79, 0x67, 0x9a, 0xa9, 0x98, 0x68, 0x8a,
    0x57, 0x4b, 0x97, 0xb3, 0x79, 0x59, 0x76, 0xa9, 0x67, 0xb9,
    0x72, 0x86, 0x79, 0x78, 0x96, 0xa9, 0x88, 0x67, 0x98, 0x7a,
    0x88, 0x9d, 0xd8, 0x67, 0x9b, 0x9d, 0xd9, 0x93, 0x9b, 0xba,
    0xa5, 0x3a, 0x87, 0x74, 0x8c, 0xb7, 0xb9, 0x8a, 0x99, 0xc3,
    0x9c, 0x84, 0xa8, 0x25, 0xdc, 0xb4, 0x7a, 0x89, 0x77, 0x5b,
    0x8a, 0xb8, 0x66, 0x88, 0x6b, 0xca, 0x6a, 0x6a, 0xa7, 0x5c,
    0xba, 0xac, 0x59, 0x78, 0x47, 0x6b, 0xb4, 0x93, 0xaa, 0x69,
    0x67, 0xb7, 0x87, 0xcc, 0xd2, 0xa8, 0x8a, 0x7a, 0x85, 0x66,
    0x6b, 0xc9, 0xb9, 0x7a, 0x6b, 0x7b, 0xb8, 0xba, 0x9b, 0x99,
    0xb9, 0x95, 0x9b, 0xb8, 0xb6, 0x7c, 0x94, 0xa5, 0xc9, 0x7c,
    0x77, 0x88, 0x96, 0xba, 0xb9, 0x9c, 0xb7, 0x46, 0xbb, 0xa6,
    0x8a, 0x98, 0x78, 0xb9, 0x87, 0x9a, 0xc8, 0x59, 0xcd, 0x99,
    0xa9, 0xba, 0x8c, 0xa9, 0xab, 0xcd, 0x98, 0x8a, 0xa6, 0x5a,
    0x9c, 0xd5, 0xac, 0x76, 0xb7, 0x77, 0xb9, 0x9c, 0x84, 0x6b,
    0xbb, 0x98, 0x87, 0xaa, 0x7c, 0xa8, 0xd9, 0x98, 0x89, 0xca,
    0x98, 0xaa, 0x9a, 0x98, 0x79, 0xb5, 0x9b, 0xba, 0xa6, 0x5c,
    0xa6, 0x77, 0xc8, 0x8e, 0xbb, 0x8a, 0xc9, 0x88, 0x89, 0x8c,
    0xb9, 0x36, 0xb6, 0xa5, 0x8a, 0xad, 0x97, 0xab, 0xbb, 0x9a,
    0xd8, 0x69, 0xed, 0x87, 0x89, 0x9b, 0x67, 0xa8, 0x88, 0xcd,
    0xca, 0x89, 0xb7, 0x5a, 0xac, 0xb4, 0x89, 0x58, 0xe7, 0x9a,
    0xaa, 0x78, 0x75, 0x8d, 0xcc, 0x9b, 0x99, 0xab, 0x8a, 0x97,
    0x99, 0x79, 0x77, 0xc8, 0x7a, 0x69, 0x9b, 0x9a, 0x98, 0xca,
    0x8a, 0x89, 0xa7, 0x7a, 0x68, 0xb6, 0xba, 0x8a, 0xbb, 0xac,
    0x9a, 0x85, 0x9a, 0x68, 0xc8, 0x76, 0x87, 0x78, 0x99, 0x9b,
    0x89, 0xaa, 0x9d, 0x8a, 0x88, 0x99, 0x79, 0x8c, 0xaa, 0xcb,
    0x88, 0xb9, 0x76, 0xa9, 0xba, 0x8c, 0x88, 0x58, 0x7a, 0x76,
    0x7a, 0x69, 0x98, 0xd9, 0xa7, 0xa6, 0x98, 0x88, 0x79, 0x8c,
    0x97, 0xab, 0xb8, 0x73, 0xb7, 0x98, 0x99, 0xb8, 0x9a, 0x98,
    0xa9, 0x9c, 0x78, 0xa4, 0x9a, 0xa9, 0x84, 0x5b, 0x87, 0xa4,
    0x98, 0x7a, 0xcb, 0x5a, 0xb7, 0x67, 0x9a, 0x78, 0x89, 0x56,
    0x96, 0x73, 0x7a, 0x9b, 0x79, 0x5b, 0x89, 0x99, 0x74, 0x8a,
    0x88, 0x6a, 0x87, 0x9b, 0x99, 0xbb, 0x67, 0xa8, 0x69, 0x9b,
    0x8a, 0x67, 0x9d, 0x88, 0x88, 0x68, 0x68, 0xb9, 0x97, 0xa6,
    0x95, 0x7a, 0xaa, 0x7c, 0x97, 0x9a, 0x9b, 0x96, 0xaa, 0x9a,
    0x99, 0xba, 0xa6, 0xb8, 0x9d, 0x9b, 0x78, 0xc8, 0x99, 0x89,
    0xb5, 0x59, 0xeb, 0xd5, 0xa8, 0x89, 0x7a, 0x8a, 0xb9, 0x7a,
    0x9a, 0x77, 0x89, 0x75, 0x78, 0x69, 0x7a, 0xaa, 0x7b, 0x8a,
    0x9b, 0xc9, 0xa8, 0x8a, 0xdb, 0x9a, 0xbb, 0xbb, 0xa7, 0xdb,
    0x99, 0xd8, 0x79, 0xac, 0x98, 0x6a, 0x79, 0xc5, 0x8c, 0x6b,
    0xe8, 0xaa, 0xc9, 0xb7, 0x86, 0xb7, 0xdc, 0xab, 0x8b, 0xbc,
    0x87, 0x75, 0x88, 0x8b, 0xab, 0x87, 0xa7, 0xd9, 0x8a, 0x8b,
    0x78, 0x89, 0x87, 0xb8, 0x86, 0x9a, 0xea, 0x76, 0x99, 0x86,
    0xc5, 0x69, 0x87, 0x89, 0xb8, 0x97, 0xa9, 0x79, 0x98, 0x65,
    0x99, 0x9c, 0x8a, 0x8a, 0x6b, 0x68, 0x77, 0xaa, 0x6b, 0x9b,
    0x7a, 0x9a, 0xa8, 0x78, 0x76, 0xa9, 0x89, 0x98, 0x7a, 0xb9,
    0xa7, 0xca, 0x8c, 0x68, 0x77, 0x87, 0x79, 0xb6, 0x96, 0x78,
    0xd9, 0xa9, 0x9b, 0xc7, 0xab, 0x7a, 0x98, 0x8b, 0xa7, 0xc9,
    0x87, 0xa9, 0xa7, 0xac, 0xaa, 0x75, 0x99, 0x78, 0x66, 0x69,
    0xbb, 0x75, 0x7a, 0x8a, 0xab, 0x8b, 0xc8, 0xb7, 0xa6, 0x7a,
    0xa7, 0x57, 0x9c, 0xa7, 0x99, 0xac, 0x9c, 0x7a, 0x9b, 0xaa,
    0xa7, 0x8a, 0x78, 0x98, 0x79, 0x8e, 0x88, 0x6a, 0x98, 0x96,
    0x99, 0x87, 0x89, 0x99, 0x87, 0x96, 0x88, 0x88, 0xca, 0x97,
    0x77, 0x6a, 0xb3, 0x78, 0xa7, 0x7c, 0x8a, 0x87, 0xb8, 0x7a,
    0x58, 0x8d, 0x96, 0x78, 0x98, 0x78, 0x88, 0x96, 0xb9, 0x82,
    0x9a, 0x49, 0x87, 0x36, 0x87, 0x67, 0x69, 0xa7, 0x66, 0x69,
    0x8a, 0xb4, 0x76, 0x74, 0x68, 0x23, 0x9c, 0xb6, 0x86, 0xab,
    0xa7, 0x75, 0xa8, 0x88, 0x64, 0x79, 0x59, 0xb7, 0x9b, 0x98,
    0x97, 0x88, 0xa9, 0x79, 0x78, 0x87, 0x79, 0x7a, 0x96, 0xa4,
    0x8a, 0x8a, 0xa9, 0x8a, 0x89, 0x89, 0x82, 0x95, 0x97, 0x77,
    0x85, 0x86, 0xb8, 0x86, 0x68, 0xab, 0xd6, 0xb7, 0x87, 0x88,
    0x98, 0x99, 0xc8, 0x85, 0x99, 0x7a, 0x95, 0x65, 0x79, 0x87,
    0x6a, 0x78, 0xb9, 0x7a, 0xa6, 0xb9, 0x77, 0x77, 0x79, 0x68,
    0x7c, 0xb7, 0x88, 0x9b, 0xa9, 0x99, 0x8b, 0xb9, 0x66, 0x88,
    0x57, 0xab, 0xa8, 0x8a, 0xb7, 0x88, 0xd9, 0x78, 0x79, 0x99,
    0x66, 0x7a, 0x67, 0x87, 0x87, 0x77, 0x79, 0x98, 0xb8, 0x9c,
    0x66, 0x86, 0x96, 0x9b, 0x9a, 0x97, 0x9b, 0x64, 0x68, 0x9a,
    0x78, 0x99, 0xb8, 0xa8, 0xb9, 0x9d, 0xc9, 0x98, 0x9a, 0x89,
    0xa4, 0x97, 0x88, 0x75, 0x8a, 0xa6, 0x9b, 0x68, 0xab, 0x9a,
    0x87, 0x96, 0x8a, 0x98, 0x9a, 0x97, 0x9b, 0x98, 0x97, 0x68,
    0x89, 0xa9, 0x74, 0x7a, 0x88, 0xa9, 0x58, 0x59, 0x76, 0x6d,
    0xab, 0x99, 0x7a, 0x85, 0x65, 0x77, 0xa8, 0x89, 0xbb, 0x98,
    0xba, 0x88, 0x98, 0xab, 0xca, 0x96, 0xaa, 0x79, 0x9b, 0x95,
    0x98, 0x6b, 0xc8, 0x88, 0x8c, 0xb7, 0xa9, 0xa9, 0xad, 0x9b,
    0xca, 0xa8, 0x8c, 0xa9, 0xb5, 0x7a, 0xb7, 0xa7, 0x9a, 0xbc,
    0xca, 0xcb, 0xd8, 0xba, 0x98, 0x99, 0xc8, 0x67, 0xad, 0xb7,
    0x88, 0x9c, 0x7c, 0xbb, 0x7b, 0x69, 0xb8, 0x99, 0x9b, 0xa7,
    0x89, 0x9b, 0x99, 0xb8, 0x8d, 0xbc, 0xa8, 0x9b, 0x97, 0x7c,
    0xab, 0xb7, 0xbd, 0x7b, 0xa7, 0xc9, 0x77, 0xce, 0xa7, 0x7a,
    0xca, 0x9d, 0x9a, 0xb8, 0x6a, 0x75, 0x99, 0x78, 0x77, 0xb8,
    0xa8, 0x89, 0xaa, 0x9b, 0xaa, 0x85, 0xac, 0x88, 0xb5, 0x5b,
    0x67, 0xb5, 0xb9, 0x9a, 0xab, 0x7a, 0xb9, 0x74, 0xa7, 0x6a,
    0xc7, 0x64, 0xa7, 0x86, 0x8a, 0x8a, 0x86, 0x79, 0xac, 0x9a,
    0x99, 0x7a, 0x9d, 0x7a, 0x89, 0x9b, 0x66, 0x89, 0xa9, 0xbd,
    0x99, 0x98, 0x96, 0x59, 0x6a, 0xb5, 0xac, 0xa8, 0x99, 0x98,
    0x9a, 0xaa, 0x76, 0x86, 0xba, 0x7b, 0x8a, 0xba, 0x7b, 0x69,
    0xd8, 0x87, 0xa9, 0xa9, 0xc7, 0x69, 0x98, 0x9b, 0x99, 0xa6,
    0x9a, 0x98, 0x94, 0x38, 0x77, 0xa5, 0xaa, 0x7a, 0xb8, 0xca,
    0xc7, 0x97, 0xa8, 0x89, 0xa8, 0x43, 0x89, 0x77, 0x7b, 0x9a,
    0x79, 0xa7, 0xbb, 0x9a, 0xcc, 0xc8, 0xaa, 0x98, 0x87, 0x9b,
    0x88, 0x9a, 0x97, 0xa9, 0xa9, 0x9b, 0xbb, 0x4a, 0x7b, 0x85,
    0xa9, 0x7a, 0x96, 0x97, 0xb8, 0xbb, 0x84, 0x68, 0x6b, 0x7b,
    0x85, 0x8b, 0xb8, 0x99, 0xb9, 0x9b, 0x88, 0xd8, 0x9a, 0xa9,
    0x99, 0x9b, 0x79, 0x8c, 0x98, 0xc9, 0x89, 0xac, 0x8c, 0x77,
    0x87, 0x8b, 0xdb, 0x7b, 0xc9, 0x7c, 0xac, 0x9a, 0xca, 0xb9,
    0x77, 0x6a, 0x78, 0x9d, 0xbb, 0x8a, 0x8c, 0xa8, 0x67, 0xc8,
    0x8b, 0x7d, 0x8d, 0x8c, 0x8b, 0x8c, 0x77, 0x98, 0x78, 0x86,
    0x6a, 0x97, 0xac, 0x8c, 0x98, 0xab, 0x9b, 0x7b, 0x89, 0x76,
    0x9b, 0xaa, 0x97, 0x7d, 0x8a, 0x88, 0x89, 0xa8, 0xb9, 0xa6,
    0x78, 0x78, 0xb6, 0xa9, 0x9c, 0x8a, 0x59, 0x83, 0x99, 0xa9,
    0x86, 0x4b, 0xa8, 0xa5, 0xa7, 0x99, 0x79, 0x88, 0xa7, 0x77,
    0x99, 0x9b, 0x68, 0x43, 0x75, 0x64, 0x7a, 0x97, 0x69, 0x69,
    0x86, 0x99, 0x66, 0xb7, 0xa8, 0x66, 0xbb, 0xa7, 0x78, 0xaa,
    0x56, 0x8b, 0x78, 0x7b, 0x69, 0x56, 0x9a, 0x94, 0x8b, 0x69,
    0xb6, 0xcb, 0x87, 0xd6, 0x73, 0x79, 0x9a, 0x78, 0x95, 0x8a,
    0x69, 0x78, 0x69, 0x86, 0x7a, 0x8a, 0x96, 0x88, 0x99, 0xab,
    0x69, 0x96, 0x78, 0xa9, 0x95, 0x69, 0xa7, 0x96, 0xa7, 0x98,
    0xab, 0x88, 0x96, 0x5a, 0xaa, 0x78, 0x96, 0x76, 0x86, 0x56,
    0x8b, 0x9a, 0x69, 0x9a, 0x78, 0xa9, 0xc9, 0x78, 0xaa, 0x6b,
    0x88, 0x8a, 0x69, 0xaa, 0x56, 0x99, 0xa9, 0x7a, 0xa5, 0x78,
    0x87, 0x88, 0x8a, 0x69, 0xb5, 0x77, 0xa8, 0x94, 0x96, 0x77,
    0x9a, 0x6a, 0x88, 0x79, 0x7c, 0xa6, 0x79, 0x78, 0x79, 0xca,
    0xa6, 0xa9, 0x9c, 0x99, 0x79, 0xa5, 0x89, 0x99, 0x98, 0x37,
    0xa7, 0xa8, 0x89, 0x98, 0xda, 0x7a, 0xdb, 0x76, 0x88, 0x85,
    0xb8, 0x67, 0x97, 0x95, 0x8a, 0x9b, 0xa8, 0x6b, 0x9a, 0x99,
    0x68, 0x88, 0xa8, 0x6b, 0xbc, 0xac, 0x56, 0x89, 0x76, 0xa6,
    0x79, 0x8a, 0x96, 0x78, 0x97, 0xa6, 0x89, 0x8b, 0x9b, 0xcb,
    0xa9, 0x68, 0x96, 0xb7, 0xb8, 0x8a, 0x89, 0x8b, 0x86, 0x99,
    0x69, 0x78, 0x99, 0xa8, 0xb6, 0xb9, 0x86, 0x87, 0x99, 0x74,
    0x98, 0x89, 0x94, 0x3a, 0xa6, 0xa5, 0xa8, 0x86, 0xaa, 0x67,
    0x96, 0xb7, 0x96, 0x7b, 0x98, 0x44, 0x9b, 0xb6, 0x86, 0x9a,
    0x68, 0x9a, 0x88, 0xa9, 0x97, 0x68, 0x78, 0xab, 0x78, 0xa9,
    0x89, 0x78, 0xc7, 0x7b, 0x79, 0x77, 0x67, 0x58, 0x77, 0xa5,
    0x8b, 0x55, 0x89, 0x86, 0x88, 0x9a, 0x95, 0x65, 0xba, 0x9b,
    0x87, 0xa6, 0x88, 0x84, 0x58, 0x89, 0xa6, 0x77, 0xb9, 0x98,
    0x99, 0x98, 0xa9, 0xa5, 0x8a, 0x7a, 0x87, 0x55, 0xb8, 0x86,
    0x7b, 0x86, 0x78, 0x5c, 0x88, 0xa4, 0x95, 0xa2, 0x99, 0x66,
    0xab, 0xb5, 0x79, 0x99, 0x87, 0x53, 0x98, 0x89, 0x75, 0x87,
    0x76, 0xa7, 0x68, 0x79, 0x92, 0x69, 0x79, 0xa7, 0x79, 0x87,
    0x77, 0x79, 0x65, 0x69, 0x98, 0x87, 0x79, 0x86, 0xa7, 0x8a,
    0xb5, 0x92, 0xc7, 0x67, 0x87, 0x99, 0x68, 0x86, 0x6a, 0x98,
    0x65, 0xa5, 0xa7, 0x59, 0x97, 0x9a, 0xa8, 0x84, 0xa9, 0x69,
    0x94, 0x38, 0x69, 0x93, 0x89, 0x68, 0x87, 0x57, 0x88, 0xa3,
    0x76, 0x86, 0x99, 0x32, 0xba, 0x96, 0x78, 0x99, 0xaa, 0x67,
    0x79, 0x79, 0x67, 0x76, 0x76, 0xb8, 0x99, 0x8a, 0x76, 0xaa,
    0x8a, 0x79, 0x79, 0x8b, 0x76, 0x5a, 0x88, 0x93, 0xa7, 0x57,
    0xa8, 0x97, 0x68, 0x78, 0x74, 0x77, 0x78, 0x9a, 0x87, 0x6a,
    0x87, 0x86, 0x69, 0x99, 0x6b, 0xca, 0xb7, 0x68, 0x88, 0x9c,
    0xa9, 0x67, 0x99, 0x99, 0x76, 0x87, 0x57, 0x74, 0x9a, 0xa6,
    0xb9, 0x5a, 0xca, 0x77, 0x9a, 0x85, 0xb9, 0x65, 0x9a, 0x76,
    0x9b, 0x8b, 0x77, 0x4a, 0x5b, 0xc9, 0x83, 0x78, 0x57, 0x99,
    0x97, 0x8a, 0x77, 0x6e, 0x68, 0x9a, 0x38, 0x87, 0x45, 0x49,
    0xb8, 0x77, 0xa6, 0x9a, 0x67, 0x97, 0x67, 0xc9, 0xd7, 0x76,
    0x5b, 0x6a, 0x87, 0x77, 0x59, 0x66, 0x79, 0x87, 0x5a, 0x9a,
    0xc8, 0x9a, 0xa8, 0x9c, 0xba, 0xb3, 0x9b, 0x98, 0xc3, 0x2b,
    0x76, 0x94, 0xb7, 0xba, 0xb9, 0x7a, 0xa8, 0xa5, 0xaa, 0x6a,
    0x97, 0x33, 0xab, 0x80, 0x8a, 0x8b, 0x55, 0x67, 0x79, 0x8b,
    0x86, 0x57, 0xbc, 0xa6, 0x76, 0x77, 0x79, 0x7b, 0xaa, 0x9b,
    0x68, 0x7a, 0x86, 0x4a, 0x98, 0x96, 0xa9, 0x87, 0x87, 0x76,
    0xa7, 0xc8, 0x83, 0x69, 0x7c, 0x89, 0x85, 0x88, 0x99, 0x58,
    0xb7, 0x96, 0x88, 0xa9, 0x88, 0x58, 0x97, 0x96, 0x88, 0x8a,
    0x89, 0xaa, 0x75, 0x9b, 0x68, 0x84, 0x8b, 0x7a, 0xa9, 0x89,
    0xb7, 0x87, 0x9a, 0x8b, 0x69, 0x88, 0xa8, 0x88, 0x98, 0xa9,
    0x58, 0xab, 0xa7, 0xaa, 0x69, 0xa6, 0x96, 0x7b, 0x77, 0x8b,
    0xab, 0x66, 0x89, 0xab, 0x79, 0x9a, 0x96, 0x89, 0xa9, 0x78,
    0x87, 0x67, 0x76, 0x99, 0xa7, 0x88, 0x49, 0x89, 0x6a, 0x7b,
    0x94, 0x78, 0x88, 0x6a, 0x99, 0x78, 0x6b, 0x86, 0xac, 0xaa,
    0x8a, 0xad, 0x99, 0x86, 0xaa, 0x99, 0xb6, 0x5a, 0xc6, 0xb6,
    0xe9, 0x9b, 0xb9, 0x9b, 0xc8, 0xa7, 0x98, 0x79, 0xaa, 0x74,
    0xa6, 0x88, 0x76, 0x9b, 0xb9, 0xb9, 0xbb, 0x59, 0xda, 0x68,
    0xbe, 0x8c, 0x7a, 0x9c, 0x87, 0x7d, 0x99, 0xac, 0xa9, 0x7a,
    0x87, 0x6a, 0xb8, 0xa5, 0x8b, 0xa7, 0xaa, 0x9b, 0x8a, 0xc9,
    0xa3, 0x77, 0xbc, 0x8c, 0x9a, 0x96, 0x68, 0xba, 0x9a, 0xa7,
    0x8b, 0xbc, 0xa9, 0xb9, 0xac, 0x8e, 0x6a, 0x94, 0x9a, 0xc9,
    0x87, 0x4a, 0xab, 0xc8, 0xa9, 0x99, 0xaa, 0x7b, 0xb9, 0x6a,
    0xa9, 0x87, 0xd8, 0x46, 0x96, 0x56, 0x7b, 0x9b, 0xab, 0x87,
    0x7b, 0xd9, 0xa8, 0xa9, 0xa8, 0x5a, 0xcb, 0xbc, 0x78, 0xab,
    0x58, 0xac, 0x89, 0x7c, 0xa9, 0x75, 0xca, 0xc4, 0xa9, 0x9b,
    0xca, 0xca, 0x98, 0xc6, 0xb4, 0x99, 0xab, 0x8c, 0x98, 0x9b,
    0x7b, 0xab, 0xb9, 0x86, 0x8c, 0xac, 0xd8, 0x78, 0xad, 0xab,
    0x59, 0x94, 0x9b, 0xa8, 0x94, 0x5c, 0xbb, 0xb5, 0xd7, 0x9c,
    0xab, 0xb8, 0xbb, 0x6b, 0xab, 0x7b, 0x88, 0x56, 0x85, 0x76,
    0x7b, 0x9a, 0x8c, 0xdb, 0xaa, 0x9a, 0xcd, 0xba, 0xa9, 0x7b,
    0xa9, 0xc9, 0x6b, 0xaa, 0x89, 0xbc, 0xc9, 0x99, 0xbb, 0x56,
    0x9a, 0x76, 0x88, 0x7a, 0x79, 0xbb, 0x97, 0xb9, 0x55, 0xaa,
    0x9b, 0x9b, 0x87, 0xa9, 0xb8, 0xa5, 0x59, 0x89, 0xb4, 0xb6,
    0x96, 0xa9, 0x99, 0x88, 0x99, 0x73, 0x7a, 0x78, 0xa5, 0x46,
    0x97, 0xa5, 0x87, 0x79, 0x8b, 0x5c, 0xb6, 0x94, 0x97, 0x77,
    0xa8, 0x66, 0x9b, 0xa2, 0x78, 0x99, 0x96, 0x6b, 0x6a, 0x89,
    0x72, 0xaa, 0xa9, 0xa7, 0xb6, 0x7a, 0xa6, 0xcb, 0x98, 0x9a,
    0x58, 0xab, 0x78, 0x49, 0xb8, 0xa5, 0x89, 0x78, 0x76, 0x86,
    0x78, 0xc8, 0x84, 0x66, 0xba, 0x9a, 0x97, 0xaa, 0x79, 0x87,
    0x9a, 0x79, 0x89, 0xa7, 0x86, 0xc8, 0x99, 0x8a, 0xa8, 0x95,
    0x9a, 0xa8, 0x75, 0x47, 0xb7, 0x84, 0xa7, 0x77, 0xb9, 0x9d,
    0x96, 0xb4, 0xa9, 0x6a, 0xc9, 0x56, 0x89, 0x95, 0x8a, 0x8c,
    0x68, 0x8c, 0x99, 0x99, 0xb6, 0x77, 0x9b, 0xbb, 0x78, 0x7c,
    0xa6, 0x6a, 0x96, 0xa9, 0xa8, 0x79, 0x78, 0x88, 0x67, 0xc4,
    0xac, 0x76, 0x68, 0xaa, 0x99, 0x77, 0x73, 0x77, 0xbb, 0x9c,
    0xa7, 0xb7, 0x99, 0x99, 0x89, 0x98, 0x89, 0x89, 0x88, 0x88,
    0x89, 0x89, 0x88, 0x89, 0x89, 0x99, 0x98, 0x98, 0x88, 0x99,
    0x98, 0x89, 0x98, 0x89, 0x99, 0x98, 0x98, 0x98, 0x98, 0x99,
    0x99, 0x98, 0x98, 0x99, 0x88, 0x99, 0x99, 0x98, 0x99, 0x88,
    0x88, 0x89, 0x89, 0x89, 0x88, 0x89, 0x89, 0x88, 0x89, 0x88,
    0x99, 0x99, 0x99, 0x89, 0x98, 0x99, 0x89, 0x89, 0x88, 0x89,
    0x98, 0x89, 0x88, 0x89, 0x89, 0x98, 0x88, 0x89, 0x98, 0x99,
    0x98, 0x98, 0x98, 0x98, 0x98, 0x89, 0x99, 0x98, 0x88, 0x99,
    0x99, 0x88, 0x99, 0x98, 0x98, 0x99, 0x88, 0x99, 0x88, 0x89,
    0x88, 0x88, 0x99, 0x98, 0x99, 0x98, 0x89, 0x98, 0x99, 0x89,
    0x88, 0x88, 0x99, 0x89, 0x89, 0x99, 0x99, 0x88, 0x89, 0x89,
    0x98, 0x99, 0x99, 0x99, 0x88, 0x88, 0x89, 0x89, 0x89, 0x98,
    0x88, 0x99, 0x88, 0x88, 0x88, 0x89, 0x89, 0x98, 0x99, 0x89,
    0x99, 0x88, 0x89, 0x99, 0x88, 0x98, 0x99, 0x88, 0x88, 0x89,
    0x89, 0x89, 0x99, 0x88, 0x99, 0x89, 0x88, 0x98, 0x88, 0x99,
    0x98, 0x99, 0x88, 0x98, 0x88, 0x99, 0x99, 0x88, 0x88, 0x89,
    0x98, 0x99, 0x89, 0x98, 0x98, 0x88, 0x88, 0x89, 0x99, 0x88,
    0x99, 0x89, 0x88, 0x98, 0x98, 0x88, 0x89, 0x88, 0x98, 0x99,
    0x88, 0x99, 0x88, 0x99, 0x98, 0x98, 0x89, 0x98, 0x88, 0x88,
    0x89, 0x98, 0x98, 0x89, 0x98, 0x98, 0x99, 0x89, 0x89, 0x98,
    0x89, 0x88, 0x98, 0x98, 0x89, 0x89, 0x88, 0x98, 0x98, 0x99,
    0x89, 0x88, 0x88, 0x99, 0x88, 0x89, 0x99, 0x99, 0x88, 0x99,
    0x88, 0x88, 0x99, 0x88, 0x89, 0x99, 0x88, 0x89, 0x99, 0x88,
    0x88, 0x98, 0x89, 0x89, 0x89, 0x99, 0x88, 0x98, 0x99, 0x99,
    0x88, 0x89, 0x89, 0x88, 0x99, 0x88, 0x88, 0x89, 0x99, 0x99,
    0x88, 0x98, 0x99, 0x98, 0x98, 0x99, 0x89, 0x99, 0x89, 0x98,
    0x88, 0x99, 0x99, 0x98, 0x98, 0x99, 0x98, 0x89, 0x88, 0x99,
    0x89, 0x98, 0x88, 0x89, 0x88, 0x88, 0x89, 0x89, 0x98, 0x88,
    0x88, 0x99, 0x88, 0x88, 0x89, 0x88, 0x98, 0x89, 0x89, 0x99,
    0x98, 0x88, 0x88, 0x98, 0x89, 0x88, 0x99, 0x99, 0x98, 0x98,
    0x88, 0x98, 0x88, 0x98, 0x89, 0x89, 0x89, 0x99, 0x98, 0x89,
    0x88, 0x99, 0x98, 0x88, 0x98, 0x99, 0x88, 0x88, 0x99, 0x89,
    0x99, 0x98, 0x99, 0x89, 0x89, 0x89, 0x99, 0x98, 0x98, 0x99,
    0x99, 0x98, 0x99, 0x98, 0x99, 0x89, 0x98, 0x99, 0x88, 0x89,
    0x88, 0x88, 0x88, 0x88, 0x89, 0x98, 0x98, 0x98, 0x88, 0x89,
    0x89, 0x89, 0x89, 0x99, 0x88, 0x89, 0x99, 0x98, 0x98, 0x89,
    0x88, 0x89, 0x89, 0x89, 0x89, 0x98, 0x98, 0x89, 0x99, 0x89,
    0x99, 0x89, 0x98, 0x88, 0x89, 0x89, 0x98, 0x89, 0x98, 0x88,
    0x99, 0x89, 0x88, 0x89, 0x89, 0x89, 0x99, 0x99, 0x99, 0x89,
    0x99, 0x98, 0x99, 0x98, 0x89, 0x99, 0x99, 0x89, 0x88, 0x98,
    0x98, 0x98, 0x88, 0x88, 0x88, 0x98, 0x88, 0x88, 0x89, 0x88,
    0x98, 0x99, 0x98, 0x98, 0x88, 0x98, 0x98, 0x88, 0x99, 0x88,
    0x99, 0x88, 0x89, 0x98, 0x98, 0x89, 0x99, 0x99, 0x98, 0x98,
    0x89, 0x99, 0x98, 0x99, 0x89, 0x98, 0x99, 0x99, 0x99, 0x98,
    0x98, 0x88, 0x88, 0x88, 0x98, 0x99, 0x98, 0x99, 0x88, 0x98,
    0x99, 0x98, 0x99, 0x99, 0x88, 0x89, 0x88, 0x99, 0x89, 0x99,
    0x88, 0x99, 0x98, 0x88, 0x99, 0x98, 0x89, 0x99, 0x98, 0x89,
    0x89, 0x99, 0x98, 0x98, 0x98, 0x98, 0x89, 0x98, 0x88, 0x89,
    0x98, 0x98, 0x88, 0x99, 0x89, 0x89, 0x89, 0x98, 0x89, 0x99,
    0x89, 0x88, 0x89, 0x99, 0x98, 0x89, 0x98, 0x99, 0x88, 0x89,
    0x98, 0x89, 0x98, 0x98, 0x89, 0x99, 0x98, 0x99, 0x98, 0x99,
    0x99, 0x89, 0x99, 0x88, 0x89, 0x89, 0x99, 0x99, 0x88, 0x99,
    0x89, 0x88, 0x99, 0x88, 0x88, 0x88, 0x99, 0x89, 0x89, 0x99,
    0x99, 0x98, 0x98, 0x89, 0x98, 0x99, 0x99, 0x98, 0x99, 0x89,
    0x98, 0x89, 0x88, 0x99, 0x89, 0x89, 0x99, 0x98, 0x99, 0x88,
    0x88, 0x99, 0x99, 0x89, 0x98, 0x99, 0x99, 0x89, 0x98, 0x89,
    0x88, 0x98, 0x89, 0x99, 0x98, 0x88, 0x98, 0x98, 0x99, 0x89,
    0x89, 0x89, 0x99, 0x99, 0x89, 0x98, 0x88, 0x99, 0x99, 0x88,
    0x89, 0x89, 0x88, 0x99, 0x99, 0x98, 0x98, 0x99, 0x89, 0x98,
    0x99, 0x99, 0x99, 0x98, 0x88, 0x89, 0x99, 0x88, 0x99, 0x99,
    0x88, 0x88, 0x89, 0x99, 0x88, 0x88, 0x89, 0x89, 0x88, 0x99,
    0x99, 0x98, 0x89, 0x99, 0x88, 0x98, 0x88, 0x89, 0x98, 0x89,
    0x99, 0x98, 0x88, 0x98, 0x98, 0x88, 0x98, 0x99, 0x89, 0x88,
    0x88, 0x99, 0x89, 0x88, 0x89, 0x99, 0x98, 0x89, 0x98, 0x88,
    0x99, 0x98, 0x89, 0x98, 0x89, 0x98, 0x88, 0x88, 0x99, 0x89,
    0x99, 0x98, 0x89, 0x89, 0x89, 0x99, 0x89, 0x88, 0x88, 0x99,
    0x88, 0x98, 0x89, 0x99, 0x89, 0x88, 0x88, 0x99, 0x98, 0x88,
    0x88, 0x99, 0x88, 0x89, 0x89, 0x99, 0x99, 0x88, 0x88, 0x99,
    0x98, 0x98, 0x99, 0x88, 0x89, 0x89, 0x89, 0x88, 0x89, 0x88,
    0x99, 0x99, 0x88, 0x89, 0x88, 0x99, 0x99, 0x98, 0x88, 0x89,
    0x99, 0x88, 0x99, 0x99, 0x88, 0x98, 0x89, 0x88, 0x89, 0x89,
    0x89, 0x98, 0x99, 0x99, 0x98, 0x98, 0x99, 0x99, 0x88, 0x88,
    0x98, 0x88, 0x99, 0x98, 0x88, 0x99, 0x89, 0x99, 0x88, 0x99,
    0x88, 0x89, 0x88, 0x88, 0x98, 0x89, 0x89, 0x88, 0x89, 0x98,
    0x98, 0x89, 0x88, 0x99, 0x99, 0x88, 0x98, 0x98, 0x89, 0x88,
    0x99, 0x88, 0x98, 0x98, 0x99, 0x99, 0x89, 0x98, 0x99, 0x98,
    0x98, 0x98, 0x88, 0x88, 0x89, 0x99, 0x98, 0x88, 0x89, 0x88,
    0x88, 0x89, 0x98, 0x89, 0x89, 0x98, 0x88, 0x89, 0x98, 0x88,
    0x89, 0x98, 0x88, 0x88, 0x98, 0x88, 0x88, 0x98, 0x88, 0x88,
    0x99, 0x99, 0x98, 0x98, 0x98, 0x99, 0x99, 0x88, 0x99, 0x88,
    0x88, 0x88, 0x99, 0x98, 0x88, 0x99, 0x88, 0x98, 0x99, 0x88,
    0x98, 0x88, 0x89, 0x89, 0x99, 0x99, 0x88, 0x98, 0x88, 0x99,
    0x88, 0x98, 0x88, 0x89, 0x88, 0x88, 0x98, 0x88, 0x98, 0x89,
    0x88, 0x89, 0x89, 0x98, 0x89, 0x89, 0x89, 0x89, 0x88, 0x89,
    0x99, 0x88, 0x98, 0x89, 0x89, 0x89, 0x88, 0x99, 0x99, 0x98,
    0x88, 0x98, 0x88, 0x99, 0x98, 0x99, 0x99, 0x99, 0x98, 0x98,
    0x99, 0x88, 0x99, 0x98, 0x89, 0x88, 0x89, 0x89, 0x88, 0x98,
    0x98, 0x89, 0x98, 0x89, 0x88, 0x88, 0x99, 0x89, 0x89, 0x89,
    0x89, 0x98, 0x88, 0x88, 0x98, 0x88, 0x99, 0x99, 0x98, 0x88,
    0x98, 0x88, 0x98, 0x99, 0x99, 0x99, 0x89, 0x88, 0x99, 0x88,
    0x88, 0x89, 0x98, 0x98, 0x88, 0x99, 0x99, 0x99, 0x98, 0x89,
    0x99, 0x89, 0x98, 0x98, 0x88, 0x99, 0x98, 0x88, 0x89, 0x89,
    0x88, 0x88, 0x89, 0x98, 0x99, 0x89, 0x88, 0x99, 0x89, 0x99,
    0x99, 0x89, 0x99, 0x99, 0x98, 0x88, 0x98, 0x98, 0x89, 0x99,
    0x99, 0x88, 0x88, 0x99, 0x89, 0x98, 0x98, 0x88, 0x98, 0x99,
    0x98, 0x88, 0x98, 0x89, 0x98, 0x99, 0x98, 0x98, 0x99, 0x88,
    0x89, 0x98, 0x88, 0x88, 0x98, 0x99, 0x99, 0x88, 0x99, 0x89,
    0x89, 0x99, 0x89, 0x88, 0x98, 0x89, 0x88, 0x98, 0x89, 0x89,
    0x99, 0x99, 0x88, 0x98, 0x89, 0x89, 0x99, 0x88, 0x99, 0x98,
    0x88, 0x99, 0x99, 0x88, 0x89, 0x98, 0x88, 0x98, 0x89, 0x99,
    0x89, 0x99, 0x88, 0x98, 0x99, 0x98, 0x88, 0x98, 0x98, 0x89,
    0x89, 0x99, 0x99, 0x98, 0x89, 0x98, 0x98, 0x89, 0x88, 0x98,
    0x89, 0x99, 0x88, 0x99, 0x99, 0x99, 0x98, 0x98, 0x88, 0x99,
    0x98, 0x88, 0x99, 0x98, 0x89, 0x99, 0x89, 0x89, 0x88, 0x88,
    0x98, 0x89, 0x99, 0x89, 0x88, 0x99, 0x98, 0x88, 0x98, 0x99,
    0x98, 0x88, 0x99, 0x88, 0x88, 0x88, 0x99, 0x89, 0x98, 0x98,
    0x99, 0x89, 0x99, 0x88, 0x98, 0x98, 0x99, 0x88, 0x88, 0x99,
    0x99, 0x99, 0x99, 0x88, 0x89, 0x99, 0x98, 0x89, 0x99, 0x89,
    0x88, 0x89, 0x89, 0x89, 0x88, 0x98, 0x98, 0x99, 0x98, 0x98,
    0x99, 0x98, 0x88, 0x89, 0x99, 0x98, 0x89, 0x89, 0x99, 0x89,
    0x99, 0x99, 0x99, 0x98, 0x88, 0x89, 0x99, 0x99, 0x88, 0x98,
    0x98, 0x98, 0x98, 0x98, 0x98, 0x89, 0x98, 0x99, 0x99, 0x88,
    0x99, 0x89, 0x98, 0x89, 0x89, 0x99, 0x99, 0x99, 0x98, 0x89,
    0x98, 0x98, 0x88, 0x99, 0x99, 0x98, 0x99, 0x88, 0x89, 0x88,
    0x99, 0x99, 0x88, 0x89, 0x88, 0x98, 0x88, 0x98, 0x98, 0x88,
    0x88, 0x99, 0x89, 0x98, 0x99, 0x89, 0x98, 0x99, 0x88, 0x88,
    0x89, 0x98, 0x88, 0x98, 0x98, 0x98, 0x89, 0x98, 0x98, 0x89,
    0x89, 0x99, 0x89, 0x89, 0x89, 0x99, 0x89, 0x99, 0x89, 0x88,
    0x99, 0x89, 0x88, 0x88, 0x98, 0x89, 0x98, 0x98, 0x99, 0x98,
    0x89, 0x89, 0x89, 0x88, 0x99, 0x88, 0x89, 0x88, 0x98, 0x98,
    0x98, 0x99, 0x99, 0x88, 0x88, 0x88, 0x98, 0x89, 0x88, 0x88,
    0x88, 0x88, 0x98, 0x89, 0x88, 0x89, 0x88, 0x89, 0x99, 0x89,
    0x89, 0x98, 0x99, 0x89, 0x88, 0x99, 0x99, 0x89, 0x88, 0x98,
    0x88, 0x89, 0x89, 0x99, 0x99, 0x88, 0x88, 0x89, 0x98, 0x89,
    0x89, 0x98, 0x89, 0x89, 0x89, 0x99, 0x88, 0x88, 0x89, 0x98,
    0x98, 0x89, 0x89, 0x99, 0x88, 0x89, 0x98, 0x98, 0x89, 0x89,
    0x88, 0x89, 0x99, 0x98, 0x88, 0x99, 0x88, 0x89, 0x98, 0x99,
    0x99, 0x99, 0x98, 0x89, 0x99, 0x88, 0x99, 0x88, 0x88, 0x89,
    0x98, 0x89, 0x88, 0x88, 0x99, 0x99, 0x98, 0x89, 0x88, 0x89,
    0x89, 0x98, 0x98, 0x89, 0x89, 0x88, 0x88, 0x99, 0x98, 0x99,
    0x89, 0x98, 0x88, 0x99, 0x99, 0x88, 0x88, 0x99, 0x88, 0x89,
    0x89, 0x89, 0x98, 0x88, 0x98, 0x98, 0x99, 0x99, 0x89, 0x99,
    0x98, 0x98, 0x89, 0x99, 0x88, 0x89, 0x89, 0x88, 0x88, 0x98,
    0x88, 0x99, 0x88, 0x89, 0x98, 0x98, 0x99, 0x89, 0x98, 0x98,
    0x99, 0x99, 0x99, 0x89, 0x99, 0x88, 0x88, 0x89, 0x99, 0x89,
    0x89, 0x88, 0x89, 0x89, 0x99, 0x98, 0x89, 0x98, 0x98, 0x89,
    0x99, 0x99, 0x99, 0x89, 0x88, 0x89, 0x89, 0x89, 0x99, 0x98,
    0x98, 0x88, 0x98, 0x98, 0x99, 0x88, 0x98, 0x99, 0x98, 0x88,
    0x98, 0x89, 0x89, 0x98, 0x88, 0x89, 0x99, 0x99, 0x88, 0x98,
    0x88, 0x99, 0x89, 0x89, 0x98, 0x88, 0x99, 0x98, 0x98, 0x89,
    0x99, 0x98, 0x89, 0x99, 0x99, 0x98, 0x88, 0x89, 0x88, 0x98,
    0x99, 0x88, 0x88, 0x89, 0x99, 0x88, 0x99, 0x99, 0x88, 0x98,
    0x99, 0x89, 0x89, 0x88, 0x99, 0x89, 0x88, 0x99, 0x89, 0x98,
    0x89, 0x99, 0x89, 0x88, 0x88, 0x98, 0x98, 0x89, 0x98, 0x89,
    0x99, 0x98, 0x88, 0x98, 0x88, 0x89, 0x89, 0x88, 0x99, 0x89,
    0x88, 0x99, 0x98, 0x98, 0x98, 0x98, 0x89, 0x98, 0x89, 0x99,
    0x88, 0x98, 0x99, 0x99, 0x99, 0x88, 0x88, 0x99, 0x98, 0x98,
    0x98, 0x88, 0x99, 0x99, 0x89, 0x99, 0x99, 0x98, 0x98, 0x89,
    0x88, 0x99, 0x99, 0x98, 0x89, 0x99, 0x99, 0x98, 0x98, 0x88,
    0x89, 0x99, 0x99, 0x99, 0x99, 0x88, 0x89, 0x89, 0x99, 0x89,
    0x99, 0x98, 0x88, 0x98, 0x98, 0x99, 0x88, 0x98, 0x99, 0x89,
    0x99, 0x89, 0x99, 0x98, 0x88, 0x98, 0x98, 0x99, 0x88, 0x89,
    0x98, 0x99, 0x89, 0x88, 0x99, 0x99, 0x98, 0x99, 0x89, 0x89,
    0x98, 0x99, 0x99, 0x88, 0x89, 0x99, 0x88, 0x99, 0x88, 0x89,
    0x98, 0x98, 0x88, 0x99, 0x88, 0x99, 0x98, 0x89, 0x99, 0x89,
    0x99, 0x89, 0x99, 0x99, 0x98, 0x89, 0x98, 0x98, 0x88, 0x99,
    0x98, 0x89, 0x98, 0x98, 0x89, 0x88, 0x88, 0x89, 0x98, 0x88,
    0x88, 0x89, 0x89, 0x89, 0x98, 0x89, 0x89, 0x99, 0x99, 0x99,
    0x98, 0x88, 0x98, 0x98, 0x98, 0x88, 0x98, 0x89, 0x98, 0x88,
    0x98, 0x88, 0x88, 0x89, 0x98, 0x88, 0x99, 0x98, 0x89, 0x89,
    0x98, 0x88, 0x88, 0x99, 0x99, 0x98, 0x89, 0x88, 0x99, 0x99,
    0x99, 0x88, 0x89, 0x88, 0x88, 0x99, 0x99, 0x88, 0x89, 0x99,
    0x98, 0x98, 0x89, 0x89, 0x99, 0x99, 0x98, 0x88, 0x88, 0x98,
    0x89, 0x98, 0x98, 0x99, 0x98, 0x99, 0x89, 0x98, 0x88, 0x99,
    0x99, 0x99, 0x98, 0x98, 0x89, 0x99, 0x88, 0x99, 0x89, 0x98,
    0x98, 0x99, 0x99, 0x99, 0x88, 0x88, 0x99, 0x98, 0x98, 0x99,
    0x98, 0x98, 0x88, 0x99, 0x98, 0x89, 0x89, 0x99, 0x98, 0x89,
    0x88, 0x89, 0x88, 0x98, 0x98, 0x89, 0x99, 0x89, 0x88, 0x99,
    0x99, 0x98, 0x99, 0x98, 0x99, 0x89, 0x99, 0x99, 0x99, 0x89,
    0x88, 0x99, 0x98, 0x99, 0x88, 0x98, 0x88, 0x89, 0x99, 0x89,
    0x98, 0x89, 0x89, 0x88, 0x88, 0x89, 0x89, 0x88, 0x88, 0x98,
    0x89, 0x88, 0x99, 0x88, 0x99, 0x89, 0x89, 0x98, 0x89, 0x89,
    0x99, 0x89, 0x98, 0x99, 0x98, 0x88, 0x99, 0x89, 0x88, 0x89,
    0x89, 0x88, 0x88, 0x89, 0x88, 0x98, 0x99, 0x88, 0x99, 0x99,
    0x89, 0x98, 0x89, 0x89, 0x99, 0x98, 0x88, 0x89, 0x88, 0x89,
    0x88, 0x98, 0x99, 0x89, 0x99, 0x98, 0x98, 0x89, 0x98, 0x98,
    0x89, 0x98, 0x98, 0x99, 0x88, 0x89, 0x89, 0x99, 0x99, 0x98,
    0x89, 0x98, 0x88, 0x89, 0x98, 0x88, 0x88, 0x99, 0x88, 0x88,
    0x88, 0x98, 0x98, 0x99, 0x98, 0x99, 0x89, 0x99, 0x88, 0x98,
    0x99, 0x89, 0x88, 0x89, 0x88, 0x99, 0x89, 0x89, 0x98, 0x88,
    0x88, 0x89, 0x88, 0x89, 0x99, 0x98, 0x89, 0x98, 0x88, 0x98,
    0x99, 0x98, 0x98, 0x89, 0x99, 0x89, 0x89, 0x88, 0x88, 0x89,
    0x98, 0x98, 0x88, 0x88, 0x88, 0x88, 0x89, 0x88, 0x88, 0x99,
    0x98, 0x88, 0x88, 0x99, 0x99, 0x89, 0x98, 0x99, 0x98, 0x98,
    0x89, 0x99, 0x99, 0x89, 0x99, 0x88, 0x88, 0x89, 0x99, 0x89,
    0x89, 0x98, 0x98, 0x88, 0x99, 0x88, 0x98, 0x88, 0x89, 0x98,
    0x89, 0x99, 0x88, 0x98, 0x88, 0x98, 0x89, 0x99, 0x88, 0x98,
    0x89, 0x98, 0x98, 0x98, 0x89, 0x99, 0x99, 0x99, 0x88, 0x98,
    0x89, 0x88, 0x88, 0x88, 0x88, 0x89, 0x88, 0x98, 0x98, 0x89,
    0x98, 0x99, 0x99, 0x89, 0x88, 0x89, 0x88, 0x98, 0x89, 0x99,
    0x99, 0x99, 0x98, 0x88, 0x98, 0x99, 0x89, 0x98, 0x88, 0x88,
    0x89, 0x99, 0x98, 0x99, 0x99, 0x99, 0x99, 0x99, 0x98, 0x89,
    0x99, 0x98, 0x98, 0x88, 0x98, 0x89, 0x99, 0x99, 0x99, 0x99,
    0x89, 0x88, 0x89, 0x98, 0x88, 0x89, 0x88, 0x99, 0x99, 0x88,
    0x99, 0x99, 0x88, 0x99, 0x99, 0x98, 0x88, 0x98, 0x98, 0x99,
    0x88, 0x89, 0x89, 0x89, 0x98, 0x89, 0x88, 0x98, 0x88, 0x99,
    0x98, 0x88, 0x88, 0x99, 0x99, 0x89, 0x98, 0x99, 0x88, 0x88,
    0x88, 0x89, 0x99, 0x88, 0x88, 0x99, 0x88, 0x99, 0x89, 0x88,
    0x89, 0x89, 0x89, 0x88, 0x99, 0x89, 0x99, 0x88, 0x89, 0x98,
    0x98, 0x88, 0x89, 0x89, 0x98, 0x88, 0x98, 0x89, 0x99, 0x88,
    0x88, 0x98, 0x89, 0x99, 0x89, 0x88, 0x89, 0x98, 0x99, 0x98,
    0x89, 0x88, 0x89, 0x98, 0x98, 0x88, 0x98, 0x89, 0x99, 0x89,
    0x99, 0x98, 0x99, 0x98, 0x98, 0x98, 0x98, 0x88, 0x99, 0x88,
    0x88, 0x89, 0x99, 0x88, 0x89, 0x98, 0x99, 0x88, 0x89, 0x99,
    0x88, 0x89, 0x88, 0x89, 0x99, 0x99, 0x98, 0x98, 0x98, 0x88,
    0x89, 0x98, 0x98, 0x89, 0x98, 0x89, 0x98, 0x99, 0x88, 0x89,
    0x88, 0x89, 0x88, 0x98, 0x99, 0x99, 0x89, 0x88, 0x88, 0x88,
    0x89, 0x88, 0x88, 0x99, 0x98, 0x99, 0x89, 0x98, 0x98, 0x89,
    0x98, 0x88, 0x99, 0x99, 0x98, 0x98, 0x98, 0x89, 0x89, 0x89,
    0x99, 0x89, 0x88, 0x89, 0x99, 0x89, 0x99, 0x88, 0x98, 0x98,
    0x89, 0x98, 0x88, 0x98, 0x89, 0x88, 0x88, 0x98, 0x98, 0x88,
    0x89, 0x88, 0x98, 0x99, 0x98, 0x88, 0x99, 0x98, 0x89, 0x98,
    0x98, 0x98, 0x98, 0x99, 0x98, 0x99, 0x88, 0x89, 0x89, 0x98,
    0x99, 0x98, 0x99, 0x89, 0x88, 0x99, 0x88, 0x89, 0x89, 0x88,
    0x89, 0x89, 0x98, 0x88, 0x99, 0x89, 0x88, 0x88, 0x89, 0x99,
    0x98, 0x99, 0x99, 0x89, 0x98, 0x98, 0x98, 0x98, 0x89, 0x98,
    0x98, 0x99, 0x88, 0x89, 0x98, 0x88, 0x88, 0x88, 0x89, 0x98,
    0x89, 0x88, 0x89, 0x98, 0x88, 0x88, 0x89, 0x98, 0x98, 0x99,
    0x89, 0x99, 0x98, 0x99, 0x89, 0x98, 0x89, 0x98, 0x89, 0x88,
    0x98, 0x99, 0x98, 0x98, 0x99, 0x88, 0x88, 0x98, 0x89, 0x89,
    0x99, 0x99, 0x89, 0x89, 0x89, 0x98, 0x98, 0x99, 0x99, 0x89,
    0x89, 0x88, 0x99, 0x99, 0x98, 0x88, 0x99, 0x88, 0x98, 0x88,
    0x88, 0x98, 0x99, 0x88, 0x98, 0x88, 0x99, 0x89, 0x88, 0x99,
    0x88, 0x98, 0x99, 0x99, 0x99, 0x99, 0x89, 0x89, 0x89, 0x99,
    0x89, 0x89, 0x98, 0x99, 0x88, 0x98, 0x88, 0x98, 0x98, 0x88,
    0x99, 0x89, 0x98, 0x99, 0x88, 0x99, 0x88, 0x88, 0x88, 0x89,
    0x99, 0x99, 0x89, 0x88, 0x89, 0x88, 0x89, 0x98, 0x88, 0x99,
    0x89, 0x99, 0x88, 0x88, 0x88, 0x89, 0x89, 0x89, 0x98, 0x98,
    0x99, 0x88, 0x89, 0x89, 0x88, 0x88, 0x98, 0x99, 0x89, 0x98,
    0x98, 0x99, 0x88, 0x88, 0x98, 0x89, 0x89, 0x99, 0x88, 0x88,
    0x98, 0x98, 0x89, 0x99, 0x88, 0x99, 0x88, 0x98, 0x89, 0x98,
    0x88, 0x88, 0x98, 0x88, 0x88, 0x88, 0x89, 0x89, 0x98, 0x99,
    0x88, 0x98, 0x98, 0x98, 0x99, 0x88, 0x99, 0x99, 0x88, 0x99,
    0x89, 0x99, 0x99, 0x89, 0x89, 0x98, 0x88, 0x99, 0x88, 0x89,
    0x99, 0x98, 0x99, 0x88, 0x88, 0x88, 0x99, 0x98, 0x88, 0x89,
    0x98, 0x98, 0x89, 0x89, 0x98, 0x89, 0x89, 0x99, 0x89, 0x99,
    0x89, 0x98, 0x98, 0x99, 0x89, 0x98, 0x88, 0x99, 0x88, 0x88,
    0x88, 0x89, 0x88, 0x98, 0x88, 0x89, 0x88, 0x98, 0x98, 0x99,
    0x98, 0x88, 0x98, 0x98, 0x88, 0x98, 0x89, 0x89, 0x89, 0x99,
    0x99, 0x89, 0x88, 0x98, 0x98, 0x99, 0x88, 0x98, 0x98, 0x89,
    0x99, 0x99, 0x89, 0x89, 0x99, 0x89, 0x99, 0x88, 0x98, 0x88,
    0x98, 0x88, 0x88, 0x98, 0x89, 0x89, 0x98, 0x88, 0x98, 0x89,
    0x98, 0x88, 0x98, 0x99, 0x89, 0x99, 0x88, 0x98, 0x88, 0x89,
    0x98, 0x98, 0x89, 0x99, 0x98, 0x89, 0x88, 0x99, 0x89, 0x98,
    0x89, 0x99, 0x98, 0x89, 0x99, 0x98, 0x98, 0x89, 0x99, 0x98,
    0x88, 0x88, 0x99, 0x89, 0x89, 0x99, 0x88, 0x98, 0x99, 0x98,
    0x99, 0x99, 0x99, 0x98, 0x99, 0x99, 0x88, 0x99, 0x99, 0x98,
    0x98, 0x89, 0x98, 0x98, 0x88, 0x98, 0x89, 0x88, 0x89, 0x98,
    0x88, 0x88, 0x89, 0x88, 0x89, 0x89, 0x89, 0x98, 0x99, 0x99,
    0x99, 0x98, 0x99, 0x89, 0x89, 0x88, 0x89, 0x89, 0x88, 0x99,
    0x89, 0x99, 0x98, 0x88, 0x99, 0x99, 0x99, 0x88, 0x99, 0x98,
    0x89, 0x98, 0x89, 0x98, 0x89, 0x89, 0x99, 0x99, 0x99, 0x89,
    0x99, 0x88, 0x88, 0x88, 0x88, 0x88, 0x88, 0x98, 0x99, 0x89,
    0x98, 0x89, 0x98, 0x99, 0x88, 0x89, 0x98, 0x89, 0x98, 0x99,
    0x88, 0x99, 0x88, 0x98, 0x98, 0x89, 0x89, 0x98, 0x88, 0x99,
    0x98, 0x89, 0x98, 0x98, 0x99, 0x88, 0x88, 0x89, 0x98, 0x89,
    0x89, 0x98, 0x88, 0x89, 0x99, 0x98, 0x98, 0x88, 0x98, 0x99,
    0x89, 0x89, 0x88, 0x88, 0x98, 0x89, 0x98, 0x88, 0x88, 0x99,
    0x98, 0x99, 0x99, 0x98, 0x88, 0x88, 0x89, 0x88, 0x88, 0x98,
    0x89, 0x89, 0x89, 0x88, 0x89, 0x98, 0x89, 0x98, 0x98, 0x98,
    0x99, 0x88, 0x89, 0x89, 0x89, 0x89, 0x98, 0x98, 0x98, 0x99,
    0x99, 0x89, 0x88, 0x89, 0x99, 0x88, 0x98, 0x98, 0x99, 0x89,
    0x99, 0x98, 0x88, 0x99, 0x88, 0x99, 0x99, 0x88, 0x98, 0x89,
    0x99, 0x88, 0x99, 0x98, 0x99, 0x89, 0x99, 0x98, 0x89, 0x99,
    0x88, 0x88, 0x99, 0x98, 0x88, 0x89, 0x89, 0x88, 0x88, 0x88,
    0x98, 0x88, 0x88, 0x89, 0x98, 0x89, 0x99, 0x99, 0x99, 0x89,
    0x99, 0x99, 0x98, 0x88, 0x88, 0x99, 0x99, 0x99, 0x98, 0x98,
    0x88, 0x98, 0x98, 0x88, 0x99, 0x88, 0x88, 0x99, 0x89, 0x88,
    0x88, 0x98, 0x99, 0x89, 0x99, 0x89, 0x98, 0x89, 0x88, 0x89,
    0x88, 0x89, 0x89, 0x99, 0x88, 0x88, 0x99, 0x99, 0x98, 0x98,
    0x89, 0x99, 0x88, 0x99, 0x89, 0x89, 0x99, 0x89, 0x98, 0x89,
    0x88, 0x88, 0x89, 0x89, 0x88, 0x89, 0x98, 0x99, 0x98, 0x99,
    0x88, 0x88, 0x98, 0x98, 0x98, 0x88, 0x88, 0x89, 0x89, 0x99,
    0x89, 0x99, 0x98, 0x99, 0x89, 0x98, 0x98, 0x99, 0x89, 0x99,
    0x88, 0x98, 0x98, 0x98, 0x89, 0x98, 0x98, 0x98, 0x99, 0x88,
    0x98, 0x88, 0x98, 0x99, 0x99, 0x89, 0x98, 0x89, 0x99, 0x89,
    0x98, 0x88, 0x88, 0x99, 0x98, 0x98, 0x88, 0x88, 0x89, 0x99,
    0x98, 0x89, 0x99, 0x98, 0x98, 0x88, 0x99, 0x88, 0x99, 0x98,
    0x98, 0x89, 0x88, 0x88, 0x88, 0x99, 0x98, 0x99, 0x98, 0x98,
    0x99, 0x99, 0x99, 0x88, 0x99, 0x98, 0x88, 0x98, 0x99, 0x88,
    0x89, 0x99, 0x98, 0x88, 0x98, 0x99, 0x98, 0x99, 0x98, 0x99,
    0x88, 0x99, 0x89, 0x88, 0x99, 0x89, 0x88, 0x88, 0x98, 0x89,
    0x88, 0x99, 0x89, 0x98, 0x98, 0x98, 0x98, 0x89, 0x88, 0x89,
    0x99, 0x88, 0x89, 0x99, 0x98, 0x88, 0x89, 0x79, 0x98, 0x89,
    0x98, 0x89, 0x88, 0x88, 0x98, 0x88, 0x88, 0x99, 0x88, 0x88,
    0x89, 0x88, 0x88, 0x98, 0x98, 0x89, 0x89, 0x98, 0x99, 0x87,
    0x99, 0x99, 0x9a, 0x88, 0x89, 0x88, 0x98, 0x88, 0x88, 0x98,
    0x88, 0x98, 0x98, 0x89, 0x99, 0x99, 0x98, 0x99, 0x89, 0x88,
    0x89, 0x89, 0xa8, 0x99, 0x99, 0x89, 0x89, 0x99, 0x99, 0x89,
    0x99, 0x99, 0x99, 0x88, 0x89, 0x89, 0x98, 0x99, 0x98, 0x89,
    0x89, 0x99, 0x89, 0x89, 0x98, 0x89, 0x89, 0x98, 0x98, 0x89,
    0x88, 0x99, 0x99, 0x89, 0x99, 0x98, 0x89, 0x98, 0x99, 0x98,
    0x88, 0x89, 0x99, 0x89, 0x88, 0x99, 0x99, 0x89, 0x88, 0x89,
    0x88, 0x88, 0x89, 0x89, 0x99, 0x98, 0x89, 0x99, 0x89, 0x89,
    0x89, 0x98, 0x99, 0x88, 0x88, 0x89, 0x88, 0x89, 0x89, 0x99,
    0x98, 0x89, 0x99, 0x98, 0x98, 0x98, 0x99, 0x88, 0x99, 0x98,
    0x98, 0x99, 0x88, 0x98, 0x88, 0x88, 0x99, 0x88, 0x89, 0x89,
    0x89, 0x99, 0x98, 0x88, 0x89, 0x89, 0x98, 0x9a, 0x89, 0x99,
    0x88, 0x88, 0x88, 0x89, 0x99, 0x99, 0x98, 0x88, 0x89, 0xa9,
    0x99, 0x89, 0x89, 0x89, 0x88, 0x99, 0x89, 0x89, 0x88, 0x89,
    0x99, 0x98, 0x99, 0x98, 0x88, 0x88, 0x89, 0x89, 0x99, 0x89,
    0x88, 0x79, 0x89, 0x99, 0x88, 0x88, 0x89, 0x89, 0x87, 0x99,
    0x99, 0x98, 0x88, 0x88, 0x98, 0x98, 0x99, 0x88, 0x89, 0x89,
    0x89, 0x99, 0x98, 0x99, 0x89, 0x88, 0x88, 0x88, 0x99, 0x88,
    0x88, 0x99, 0x89, 0x88, 0x79, 0x98, 0x98, 0x98, 0x88, 0x89,
    0x98, 0x98, 0x89, 0x98, 0x99, 0x98, 0x89, 0x89, 0x98, 0x89,
    0x98, 0x89, 0x89, 0x98, 0x98, 0x99, 0x89, 0x89, 0x88, 0x89,
    0x88, 0x88, 0x88, 0x89, 0x89, 0x98, 0x88, 0x89, 0x88, 0x88,
    0x88, 0x99, 0x98, 0x88, 0x99, 0x88, 0x99, 0x98, 0x97, 0x79,
    0x89, 0x98, 0x99, 0x88, 0x78, 0x89, 0x99, 0x88, 0x88, 0x98,
    0x99, 0x88, 0x89, 0x87, 0x88, 0x88, 0x98, 0x98, 0x88, 0x79,
    0x89, 0x89, 0x89, 0x88, 0x98, 0x89, 0x89, 0x98, 0x89, 0x99,
    0x88, 0x88, 0x88, 0x98, 0x88, 0x89, 0x88, 0x88, 0x88, 0x98,
    0x88, 0x88, 0x88, 0x88, 0x98, 0x89, 0x97, 0x98, 0x89, 0x88,
    0x89, 0x99, 0x99, 0x89, 0x99, 0x99, 0x98, 0x89, 0x88, 0x98,
    0x98, 0x99, 0x98, 0x88, 0x88, 0x78, 0x98, 0x89, 0x99, 0x88,
    0x89, 0x99, 0x99, 0x88, 0x88, 0x88, 0x89, 0x89, 0x88, 0x99,
    0x89, 0x88, 0x89, 0x89, 0x99, 0x88, 0x98, 0x99, 0x89, 0x97,
    0x88, 0x88, 0x89, 0x88, 0x99, 0x89, 0x99, 0x99, 0x98, 0x98,
    0x98, 0x89, 0xa8, 0x88, 0x99, 0x98, 0x88, 0x88, 0x89, 0x99,
    0x99, 0x89, 0x98, 0x99, 0x98, 0x98, 0x89, 0x89, 0x89, 0x89,
    0x88, 0x99, 0x89, 0x98, 0x99, 0x99, 0x88, 0xa9, 0x88, 0x88,
    0x89, 0x89, 0x98, 0x89, 0x99, 0x9a, 0x98, 0x99, 0x88, 0x99,
    0x98, 0x88, 0x89, 0x89, 0x98, 0x98, 0x89, 0x98, 0x98, 0x98,
    0x89, 0x99, 0x99, 0x99, 0x89, 0x98, 0x99, 0x78, 0x98, 0x98,
    0x98, 0x88, 0x99, 0x99, 0x89, 0x98, 0x78, 0x89, 0x89, 0x98,
    0x88, 0x98, 0x98, 0x99, 0x99, 0x98, 0x88, 0x88, 0x88, 0x98,
    0x98, 0x98, 0x89, 0x89, 0x89, 0x88, 0x99, 0x99, 0x99, 0x88,
    0x89, 0x88, 0x88, 0x88, 0x99, 0x78, 0x99, 0x88, 0x88, 0x89,
    0x98, 0x99, 0x98, 0x98, 0x88, 0x89, 0x99, 0x99, 0x89, 0x88,
    0x98, 0x98, 0x99, 0x88, 0x88, 0x89, 0x99, 0x99, 0x99, 0x98,
    0x99, 0x88, 0x98, 0x98, 0x88, 0x98, 0x88, 0x8a, 0x99, 0x88,
    0x88, 0x98, 0x99, 0x89, 0x8a, 0x88, 0x98, 0x99, 0x99, 0x99,
    0x99, 0x88, 0x99, 0x99, 0x98, 0x88, 0x89, 0x89, 0x89, 0x89,
    0x89, 0x99, 0x88, 0x98, 0x99, 0x98, 0x88, 0x98, 0x89, 0x99,
    0x99, 0x99, 0x98, 0x98, 0x98, 0x88, 0x99, 0x98, 0x89, 0x88,
    0x99, 0x89, 0x99, 0x88, 0x99, 0x99, 0x98, 0x99, 0x98, 0x89,
    0x98, 0x9a, 0x89, 0x98, 0x89, 0x99, 0x98, 0x98, 0x99, 0x89,
    0x99, 0x98, 0x88, 0x99, 0x98, 0x79, 0x89, 0x89, 0xa9, 0x88,
    0x89, 0x89, 0x98, 0x89, 0x99, 0x89, 0x88, 0x89, 0x88, 0x99,
    0x89, 0x99, 0x89, 0x98, 0x99, 0x88, 0x99, 0x89, 0x88, 0x98,
    0x88, 0x98, 0x99, 0x89, 0x89, 0x89, 0x88, 0x89, 0x88, 0x89,
    0x88, 0x89, 0x88, 0x98, 0x88, 0x99, 0x99, 0x98, 0x99, 0x99,
    0x99, 0x88, 0x98, 0x88, 0x99, 0x89, 0x88, 0x88, 0x98, 0x99,
    0x99, 0x89, 0x88, 0x98, 0x89, 0x88, 0x98, 0x99, 0x89, 0x8a,
    0x89, 0x89, 0x88, 0x98, 0x88, 0x98, 0x98, 0x88, 0x88, 0x99,
    0x98, 0x89, 0x89, 0x89, 0x99, 0x89, 0x99, 0x8a, 0x88, 0xa8,
    0x89, 0x9a, 0x89, 0x89, 0x89, 0x98, 0x98, 0x99, 0x89, 0x89,
    0x89, 0x89, 0x88, 0x98, 0x98, 0x98, 0x89, 0x98, 0x98, 0x8a,
    0x89, 0x99, 0x89, 0x99, 0x98, 0x98, 0x9a, 0x99, 0x88, 0x89,
    0x99, 0x99, 0x89, 0x89, 0x98, 0x88, 0x88, 0x89, 0x98, 0x89,
    0x98, 0x88, 0x88, 0x99, 0x89, 0x99, 0x89, 0x99, 0x89, 0x99,
    0x98, 0x99, 0x89, 0x89, 0x99, 0x98, 0x98, 0x99, 0x89, 0x89,
    0x98, 0x99, 0x98, 0x89, 0x99, 0x99, 0x99, 0x98, 0x98, 0x99,
    0x99, 0x88, 0x88, 0x99, 0x99, 0x99, 0x88, 0x88, 0x89, 0x98,
    0x89, 0x89, 0x98, 0x89, 0x98, 0x89, 0x88, 0x98, 0x99, 0x88,
    0x98, 0x88, 0x98, 0x99, 0x88, 0x99, 0x89, 0x99, 0x89, 0x99,
    0x98, 0x89, 0x98, 0x98, 0x89, 0x89, 0x98, 0x98, 0x88, 0x99,
    0x98, 0x89, 0x89, 0x88, 0x99, 0x89, 0x99, 0x89, 0x99, 0x89,
    0x99, 0x9a, 0x98, 0x88, 0x99, 0x89, 0x88, 0x99, 0xa9, 0x98,
    0x98, 0x99, 0x89, 0x98, 0x89, 0x98, 0x98, 0x99, 0x98, 0x88,
    0x88, 0x98, 0x99, 0x99, 0x99, 0x99, 0x99, 0x89, 0x99, 0x89,
    0x98, 0x89, 0x99, 0x99, 0x89, 0xa9, 0x98, 0x89, 0x89, 0x99,
    0x99, 0x99, 0x99, 0x88, 0x99, 0x88, 0x99, 0x89, 0x88, 0x88,
    0x99, 0x89, 0x89, 0x89, 0x89, 0x98, 0x98, 0x98, 0x98, 0x89,
    0x98, 0x99, 0x89, 0x89, 0x89, 0x88, 0x89, 0x89, 0x99, 0x88,
    0x99, 0x88, 0x99, 0x88, 0x89, 0x98, 0x98, 0x99, 0x88, 0x89,
    0x99, 0x88, 0x88, 0x88, 0x89, 0x88, 0x89, 0x89, 0x89, 0x88,
    0x98, 0x99, 0x99, 0x89, 0x89, 0x99, 0x98, 0x98, 0x88, 0x99,
    0x99, 0x98, 0x99, 0x97, 0x99, 0x88, 0x78, 0x98, 0x88, 0x88,
    0x89, 0x88, 0x88, 0x98, 0x88, 0x89, 0x98, 0x88, 0x89, 0x88,
    0x88, 0x99, 0x99, 0x89, 0x88, 0x89, 0x98, 0x98, 0x89, 0x98,
    0x98, 0x79, 0x89, 0x99, 0x89, 0x98, 0x88, 0x88, 0x99, 0x89,
    0x98, 0x99, 0x98, 0x99, 0x98, 0x99, 0x99, 0x99, 0x98, 0x89,
    0x88, 0x98, 0x98, 0x88, 0x89, 0x99, 0x89, 0x88, 0x89, 0x88,
    0x99, 0x89, 0x99, 0x88, 0x98, 0x98, 0x88, 0x98, 0x88, 0x88,
    0x99, 0x89, 0x89, 0x88, 0x88, 0x88, 0x88, 0x99, 0x88, 0x88,
    0x99, 0x89, 0x99, 0x88, 0x99, 0x88, 0x98, 0x89, 0x89, 0x99,
    0x98, 0x88, 0x99, 0x97, 0x99, 0x99, 0x89, 0x99, 0x98, 0x88,
    0x89, 0x98, 0x88, 0x89, 0x88, 0x89, 0x99, 0x89, 0x88, 0x89,
    0x99, 0x88, 0x88, 0x98, 0x89, 0x88, 0x89, 0x89, 0x98, 0x98,
    0x88, 0x98, 0x98, 0x88, 0x98, 0x99, 0x88, 0x88, 0x98, 0x98,
    0x99, 0x99, 0x89, 0x89, 0x88, 0x98, 0x98, 0x99, 0x99, 0x88,
    0x98, 0x89, 0x99, 0x98, 0x98, 0x89, 0x88, 0x88, 0x88, 0x88,
    0x98, 0x88, 0x99, 0x79, 0x89, 0x98, 0x88, 0x9a, 0x99, 0x9a,
    0x98, 0x99, 0x98, 0x89, 0x89, 0x89, 0x99, 0x98, 0x99, 0x88,
    0x99, 0x99, 0x99, 0x99, 0x89, 0x89, 0x89, 0x99, 0x88, 0x89,
    0x9a, 0x88, 0x98, 0x98, 0x88, 0xa8, 0x89, 0x99, 0x89, 0x98,
    0xa8, 0x99, 0x87, 0x99, 0x88, 0x89, 0x88, 0xa8, 0x98, 0x88,
    0xa8, 0x88, 0x99, 0x89, 0x89, 0x98, 0x89, 0x98, 0x99, 0x89,
    0x99, 0x88, 0x99, 0x98, 0x98, 0x98, 0xa9, 0x98, 0x98, 0x88,
    0x89, 0x89, 0x99, 0x89, 0x99, 0x89, 0x98, 0x88, 0x89, 0x99,
    0x89, 0x88, 0x88, 0x88, 0x99, 0x98, 0x99, 0x99, 0x88, 0x89,
    0x89, 0x89, 0x98, 0x99, 0x98, 0x89, 0x89, 0x89, 0x98, 0x89,
    0x99, 0x98, 0x89, 0x98, 0x88, 0x98, 0x99, 0x99, 0x98, 0x89,
    0x88, 0x98, 0x98, 0x99, 0x99, 0x99, 0x99, 0x98, 0x89, 0x88,
    0x98, 0x88, 0x98, 0x99, 0x98, 0x89, 0x98, 0x9a, 0x99, 0x99,
    0x98, 0x89, 0x98, 0x89, 0x99, 0x99, 0x89, 0x89, 0x88, 0x99,
    0x98, 0x89, 0x88, 0x99, 0x99, 0x99, 0x99, 0x99, 0x98, 0x88,
    0x89, 0x98, 0x98, 0x98, 0x89, 0x98, 0x89, 0x99, 0x99, 0x99,
    0x88, 0x89, 0x88, 0x89, 0x88, 0x88, 0x98, 0x98, 0x98, 0x89,
    0x99, 0x98, 0x89, 0x88, 0x88, 0x98, 0x89, 0x89, 0x9a, 0x89,
    0x98, 0x89, 0x98, 0x88, 0x88, 0x88, 0x99, 0x88, 0xa9, 0x99,
    0x98, 0x88, 0x88, 0x99, 0x88, 0x98, 0x99, 0x98, 0x89, 0x99,
    0xa9, 0x88, 0x79, 0x89, 0x88, 0x89, 0x98, 0x99, 0x89, 0x89,
    0x98, 0x98, 0x89, 0x99, 0x98, 0x99, 0x98, 0x98, 0x98, 0x98,
    0x88, 0x88, 0x88, 0x89, 0x88, 0x89, 0x78, 0x89, 0x98, 0x88,
    0x98, 0x89, 0x77, 0x98, 0x98, 0x99, 0x99, 0x88, 0x99, 0x98,
    0x89, 0x89, 0x88, 0x89, 0x89, 0x89, 0x99, 0x88, 0x98, 0x99,
    0x89, 0x99, 0x99, 0x89, 0x77, 0x99, 0x98, 0x88, 0x88, 0x89,
    0x88, 0x89, 0x88, 0x88, 0x89, 0x88, 0x89, 0x99, 0x88, 0x89,
    0x88, 0x99, 0x99, 0x88, 0x88, 0x99, 0x88, 0x99, 0x99, 0x99,
    0x99, 0x88, 0x88, 0x99, 0x99, 0x99, 0x89, 0xa8, 0xa8, 0x89,
    0x88, 0x88, 0x99, 0x99, 0x89, 0x78, 0x98, 0x88, 0x88, 0x88,
    0x89, 0x99, 0x98, 0x99, 0x88, 0x88, 0x99, 0x88, 0x98, 0x98,
    0x99, 0x98, 0xa9, 0x88, 0x98, 0xa9, 0x89, 0x99, 0x89, 0x78,
    0x98, 0x89, 0x99, 0x89, 0x89, 0x99, 0x99, 0x88, 0x89, 0x98,
    0x99, 0x88, 0x88, 0x99, 0x98, 0x89, 0x88, 0x99, 0x88, 0x89,
    0x98, 0x9a, 0x88, 0x8a, 0x99, 0x99, 0x99, 0x89, 0x88, 0x98,
    0x98, 0x99, 0x99, 0x98, 0x88, 0x99, 0x98, 0x99, 0x99, 0x89,
    0x89, 0x88, 0x99, 0x88, 0x88, 0x88, 0x88, 0x99, 0x89, 0x98,
    0x99, 0x99, 0x98, 0x99, 0x89, 0x88, 0x99, 0x89, 0x89, 0x88,
    0x89, 0x98, 0x89, 0x98, 0x88, 0x89, 0x98, 0x89, 0x98, 0xa8,
    0x89, 0x89, 0x98, 0x88, 0x88, 0x99, 0x98, 0x98, 0x99, 0x98,
    0x89, 0xa9, 0x99, 0x98, 0x98, 0x88, 0x89, 0x89, 0x99, 0x98,
    0x89, 0x88, 0x87, 0x89, 0x89, 0x99, 0x88, 0x98, 0x89, 0x98,
    0x98, 0x88, 0x98, 0x88, 0x99, 0x88, 0x98, 0x9a, 0x99, 0x88,
    0x99, 0x99, 0x98, 0x88, 0x98, 0x98, 0x89, 0x88, 0x98, 0x99,
    0xa9, 0x98, 0x99, 0x89, 0x88, 0x99, 0x89, 0x98, 0x98, 0x99,
    0x99, 0x88, 0x98, 0x99, 0x99, 0x98, 0x99, 0x99, 0x8a, 0x88,
    0x98, 0x99, 0x98, 0x89, 0x88, 0x99, 0x88, 0x99, 0x89, 0x99,
    0x89, 0x88, 0x89, 0x99, 0x98, 0x99, 0xa9, 0x89, 0x89, 0x99,
    0x99, 0x89, 0x88, 0x89, 0x88, 0x99, 0x98, 0x99, 0x99, 0x98,
    0x99, 0x99, 0x9a, 0x98, 0x89, 0x98, 0x89, 0x98, 0x89, 0x98,
    0x89, 0x99, 0x98, 0x98, 0x98, 0x89, 0x89, 0x88, 0x89, 0x88,
    0x89, 0x89, 0x88, 0x89, 0x88, 0x88, 0x88, 0x99, 0x89, 0x89,
    0x88, 0x89, 0x99, 0x99, 0x99, 0x88, 0x88, 0x99, 0x89, 0x98,
    0x88, 0x98, 0x98, 0x88, 0x89, 0x89, 0x88, 0x99, 0x98, 0x88,
    0x99, 0x88, 0x88, 0x89, 0x98, 0x88, 0x99, 0x99, 0x88, 0x98,
    0x99, 0x98, 0x89, 0x88, 0x98, 0x99, 0xa8, 0x98, 0x89, 0x99,
    0x89, 0x89, 0x99, 0x89, 0x98, 0x98, 0x88, 0x89, 0x89, 0x89,
    0x98, 0x88, 0x89, 0x88, 0x88, 0x88, 0x99, 0x88, 0x89, 0x89,
    0x88, 0x99, 0x88, 0x99, 0x89, 0x88, 0x88, 0x98, 0x99, 0x99,
    0x89, 0x89, 0x89, 0x89, 0x89, 0x88, 0x89, 0x88, 0x88, 0x89,
    0x88, 0x98, 0x98, 0x88, 0x88, 0x89, 0x99, 0x99, 0x99, 0x97,
    0x99, 0x88, 0x88, 0x88, 0x99, 0x98, 0x88, 0x89, 0x88, 0x88,
    0x89, 0x88, 0x99, 0x89, 0x88, 0x88, 0x98, 0x98, 0x99, 0x98,
    0x98, 0x78, 0x98, 0x88, 0x88, 0x88, 0x98, 0x88, 0x99, 0x98,
    0x88, 0x98, 0x98, 0x99, 0x88, 0x99, 0x98, 0x98, 0x89, 0x98,
    0x88, 0x99, 0x99, 0x88, 0x89, 0x98, 0x98, 0x98, 0x99, 0x88,
    0x99, 0x89, 0x98, 0x89, 0x88, 0x98, 0x99, 0x98, 0x99, 0x98,
    0x98, 0x89, 0x89, 0x99, 0x98, 0x98, 0x79, 0x98, 0x98, 0x98,
    0x89, 0x88, 0x98, 0x98, 0x98, 0x89, 0x99, 0x99, 0x98, 0x89,
